{"version":"1.0","truncation":null,"padding":null,"added_tokens":[{"id":0,"special":true,"content":"<unk>","single_word":false,"lstrip":false,"rstrip":false,"normalized":false}],"normalizer":{"type":"NFKC"},"pre_tokenizer":{"type":"Metaspace","replacement":"▁","add_prefix_space":true},"post_processor":null,"decoder":{"type":"Metaspace","replacement":"▁","add_prefix_space":true},"model":{"type":"BPE","dropout":null,"unk_token":null,"continuing_subword_prefix":null,"end_of_word_suffix":null,"fuse_unk":false,"vocab":{"<unk>":0,"\t":1,"\n":2,"!":3,"\"":4,"#":5,"$":6,"%":7,"&":8,"'":9,"(":10,")":11,"*":12,"+":13,",":14,"-":15,".":16,"/":17,"0":18,"1":19,"2":20,"3":21,"4":22,"5":23,"6":24,"7":25,"8":26,"9":27,":":28,";":29,"<":30,"=":31,">":32,"?":33,"@":34,"A":35,"B":36,"C":37,"D":38,"E":39,"F":40,"G":41,"H":42,"I":43,"J":44,"K":45,"L":46,"M":47,"N":48,"O":49,"P":50,"Q":51,"R":52,"S":53,"T":54,"U":55,"V":56,"W":57,"X":58,"Y":59,"Z":60,"[":61,"\\":62,"]":63,"^":64,"_":65,"`":66,"a":67,"b":68,"c":69,"d":70,"e":71,"f":72,"g":73,"h":74,"i":75,"j":76,"k":77,"l":78,"m":79,"n":80,"o":81,"p":82,"q":83,"r":84,"s":85,"t":86,"u":87,"v":88,"w":89,"x":90,"y":91,"z":92,"{":93,"|":94,"}":95,"~":96,"¡":97,"¢":98,"£":99,"¤":100,"¥":101,"¦":102,"§":103,"©":104,"«":105,"¬":106,"­":107,"®":108,"°":109,"±":110,"¶":111,"·":112,"»":113,"¿":114,"À":115,"Á":116,"Â":117,"Ã":118,"Ä":119,"Å":120,"Ç":121,"È":122,"É":123,"Ê":124,"Í":125,"Î":126,"Ï":127,"Ð":128,"Ñ":129,"Ó":130,"Ö":131,"×":132,"Ø":133,"Ú":134,"Ü":135,"Þ":136,"ß":137,"à":138,"á":139,"â":140,"ã":141,"ä":142,"å":143,"æ":144,"ç":145,"è":146,"é":147,"ê":148,"ë":149,"ì":150,"í":151,"î":152,"ï":153,"ð":154,"ñ":155,"ò":156,"ó":157,"ô":158,"õ":159,"ö":160,"÷":161,"ø":162,"ù":163,"ú":164,"û":165,"ü":166,"ý":167,"þ":168,"Ā":169,"ā":170,"ă":171,"ą":172,"ć":173,"Ĉ":174,"ĉ":175,"ċ":176,"Č":177,"č":178,"Đ":179,"đ":180,"Ē":181,"ē":182,"ė":183,"ę":184,"ě":185,"Ĝ":186,"ğ":187,"Ĥ":188,"ħ":189,"ī":190,"İ":191,"ı":192,"ĸ":193,"Ł":194,"ł":195,"ń":196,"ň":197,"ŋ":198,"ō":199,"ő":200,"œ":201,"ŕ":202,"ř":203,"Ś":204,"ś":205,"Ŝ":206,"ŝ":207,"Ş":208,"ş":209,"Š":210,"š":211,"ţ":212,"Ŧ":213,"ŧ":214,"ū":215,"ů":216,"ű":217,"ŵ":218,"ŷ":219,"ź":220,"Ż":221,"ż":222,"Ž":223,"ž":224,"Ɛ":225,"ƒ":226,"Ɣ":227,"Ɨ":228,"Ƙ":229,"ƙ":230,"ƚ":231,"ƞ":232,"Ɵ":233,"ơ":234,"Ʃ":235,"Ƭ":236,"ǁ":237,"ǂ":238,"ǎ":239,"Ǻ":240,"ș":241,"Ƞ":242,"ɑ":243,"ɔ":244,"ɕ":245,"ə":246,"ɛ":247,"ɜ":248,"ɡ":249,"ɣ":250,"ɤ":251,"ɨ":252,"ɪ":253,"ɳ":254,"ɸ":255,"ʃ":256,"ʊ":257,"ʎ":258,"ʐ":259,"ʔ":260,"ʟ":261,"ʹ":262,"ʺ":263,"ʻ":264,"ʼ":265,"ˀ":266,"˂":267,"˃":268,"˄":269,"˅":270,"ˆ":271,"ˇ":272,"ˈ":273,"ˉ":274,"ˊ":275,"ː":276,"˗":277,"́":278,"̂":279,"̃":280,"̄":281,"̅":282,"̆":283,"̇":284,"̈":285,"̊":286,"̋":287,"̧":288,"͙":289,"͡":290,"Ά":291,"Α":292,"Β":293,"Γ":294,"Δ":295,"Ε":296,"Ζ":297,"Η":298,"Θ":299,"Ι":300,"Κ":301,"Λ":302,"Μ":303,"Ν":304,"Ξ":305,"Ο":306,"Π":307,"Ρ":308,"Σ":309,"Τ":310,"Υ":311,"Φ":312,"Χ":313,"Ψ":314,"Ω":315,"ά":316,"έ":317,"ή":318,"ί":319,"α":320,"β":321,"γ":322,"δ":323,"ε":324,"ζ":325,"η":326,"θ":327,"ι":328,"κ":329,"λ":330,"μ":331,"ν":332,"ξ":333,"ο":334,"π":335,"ρ":336,"ς":337,"σ":338,"τ":339,"υ":340,"φ":341,"χ":342,"ψ":343,"ω":344,"ό":345,"ύ":346,"ώ":347,"Ϯ":348,"ϯ":349,"І":350,"А":351,"Б":352,"В":353,"Г":354,"Д":355,"Е":356,"К":357,"Л":358,"М":359,"Н":360,"О":361,"П":362,"Р":363,"С":364,"Т":365,"Ф":366,"Х":367,"Ч":368,"Ш":369,"а":370,"б":371,"в":372,"г":373,"д":374,"е":375,"ж":376,"з":377,"и":378,"й":379,"к":380,"л":381,"м":382,"н":383,"о":384,"п":385,"р":386,"с":387,"т":388,"у":389,"ф":390,"х":391,"ц":392,"ч":393,"ш":394,"ы":395,"ь":396,"э":397,"ю":398,"я":399,"і":400,"ї":401,"Ѵ":402,"ү":403,"Ұ":404,"ә":405,"ӧ":406,"Ө":407,"ө":408,"Ӽ":409,"՛":410,"־":411,"׀":412,"ו":413,"׳":414,"،":415,"أ":416,"ا":417,"ب":418,"ة":419,"ت":420,"ث":421,"ج":422,"ح":423,"خ":424,"د":425,"ر":426,"ز":427,"س":428,"ش":429,"ص":430,"ض":431,"ط":432,"ع":433,"ـ":434,"ف":435,"ق":436,"ك":437,"ل":438,"م":439,"ن":440,"ه":441,"و":442,"ي":443,"َ":444,"٪":445,"٭":446,"ی":447,"਀":448,"ก":449,"ท":450,"น":451,"ม":452,"ย":453,"ร":454,"ล":455,"อ":456,"า":457,"เ":458,"ກ":459,"ງ":460,"ນ":461,"ມ":462,"ຫ":463,"ອ":464,"າ":465,"ເ":466,"་":467,"།":468,"ᅟ":469,"ᴅ":470,"ᵻ":471,"ḡ":472,"ḷ":473,"ṭ":474,"ả":475,"ọ":476,"​":477,"‌":478,"‎":479,"‏":480,"‐":481,"‒":482,"–":483,"—":484,"―":485,"‖":486,"‘":487,"’":488,"‚":489,"“":490,"”":491,"„":492,"†":493,"‡":494,"•":495," ":496," ":497,"‬":498,"‰":499,"′":500,"‹":501,"›":502,"※":503,"⁃":504,"⁄":505,"⁎":506,"⁑":507,"⁠":508,"⁡":509,"⁢":510,"⁣":511,"₤":512,"₦":513,"₩":514,"₫":515,"€":516,"₹":517,"⃗":518,"⃞":519,"℘":520,"←":521,"↑":522,"→":523,"↓":524,"↔":525,"↕":526,"↗":527,"↘":528,"↙":529,"↥":530,"↦":531,"↧":532,"⇀":533,"⇄":534,"⇈":535,"⇊":536,"⇋":537,"⇌":538,"⇐":539,"⇑":540,"⇒":541,"⇓":542,"⇔":543,"⇗":544,"⇘":545,"⇧":546,"⇨":547,"⇩":548,"∀":549,"∂":550,"∃":551,"∅":552,"∆":553,"∇":554,"∈":555,"∉":556,"∊":557,"∎":558,"∏":559,"∑":560,"−":561,"∓":562,"∕":563,"∖":564,"∗":565,"∘":566,"∙":567,"√":568,"∝":569,"∞":570,"∠":571,"∡":572,"∣":573,"∥":574,"∧":575,"∨":576,"∩":577,"∪":578,"∫":579,"∮":580,"∶":581,"∷":582,"∼":583,"∽":584,"≃":585,"≅":586,"≈":587,"≙":588,"≠":589,"≡":590,"≤":591,"≥":592,"≦":593,"≧":594,"≪":595,"≫":596,"≲":597,"≺":598,"≻":599,"⊂":600,"⊃":601,"⊆":602,"⊑":603,"⊓":604,"⊕":605,"⊖":606,"⊗":607,"⊘":608,"⊙":609,"⊚":610,"⊝":611,"⊠":612,"⊣":613,"⊤":614,"⊥":615,"⊳":616,"⊺":617,"⊿":618,"⋁":619,"⋂":620,"⋄":621,"⋅":622,"⋆":623,"⋎":624,"⋮":625,"⋯":626,"⌂":627,"⌈":628,"⌉":629,"⌊":630,"⌋":631,"⌘":632,"⌢":633,"⍺":634,"⎕":635,"⎻":636,"⎼":637,"─":638,"━":639,"│":640,"└":641,"┤":642,"┬":643,"┴":644,"┼":645,"║":646,"╪":647,"╳":648,"▁":649,"▄":650,"█":651,"░":652,"▓":653,"■":654,"□":655,"▢":656,"▪":657,"▫":658,"▬":659,"▲":660,"△":661,"▴":662,"▵":663,"▶":664,"▷":665,"▸":666,"▹":667,"►":668,"▼":669,"▽":670,"▾":671,"▿":672,"◆":673,"◇":674,"◈":675,"◉":676,"◊":677,"○":678,"◌":679,"◎":680,"●":681,"◐":682,"◑":683,"◒":684,"◖":685,"◘":686,"◦":687,"◪":688,"◯":689,"◻":690,"◼":691,"◾":692,"★":693,"☆":694,"☐":695,"☑":696,"☒":697,"☓":698,"☨":699,"☹":700,"☺":701,"☼":702,"♀":703,"♂":704,"♠":705,"♢":706,"♣":707,"♥":708,"♦":709,"♪":710,"♭":711,"♯":712,"♰":713,"♱":714,"⚫":715,"✓":716,"✔":717,"✕":718,"✖":719,"✗":720,"✘":721,"✚":722,"✝":723,"✣":724,"✦":725,"✧":726,"✩":727,"✪":728,"✭":729,"✯":730,"✰":731,"✳":732,"✵":733,"✶":734,"✸":735,"✹":736,"❊":737,"❌":738,"❍":739,"❏":740,"❑":741,"❖":742,"➀":743,"➁":744,"➂":745,"➌":746,"➎":747,"➏":748,"➑":749,"➔":750,"➘":751,"➙":752,"➚":753,"➜":754,"➡":755,"➢":756,"➣":757,"➤":758,"⟡":759,"⟨":760,"⟩":761,"⟶":762,"⟷":763,"⟺":764,"⦁":765,"⦿":766,"⧧":767,"⨁":768,"⨉":769,"⨯":770,"⩽":771,"⩾":772,"⬆":773,"⬇":774,"⬌":775,"⬛":776,"⬜":777,"⬤":778,"⭐":779,"ⱡ":780,"⿿":781,"、":782,"。":783,"〃":784,"〇":785,"〈":786,"〉":787,"【":788,"】":789,"〜":790,"〤":791,"あ":792,"い":793,"か":794,"が":795,"く":796,"し":797,"す":798,"た":799,"っ":800,"つ":801,"て":802,"で":803,"と":804,"な":805,"に":806,"の":807,"は":808,"ま":809,"め":810,"ら":811,"る":812,"・":813,"ー":814,"一":815,"三":816,"上":817,"下":818,"不":819,"个":820,"中":821,"丹":822,"为":823,"之":824,"二":825,"于":826,"五":827,"人":828,"他":829,"体":830,"何":831,"作":832,"儿":833,"公":834,"关":835,"内":836,"冬":837,"出":838,"分":839,"制":840,"刺":841,"前":842,"力":843,"加":844,"动":845,"化":846,"医":847,"十":848,"南":849,"参":850,"參":851,"发":852,"口":853,"可":854,"叶":855,"合":856,"后":857,"员":858,"味":859,"和":860,"土":861,"在":862,"地":863,"多":864,"大":865,"天":866,"头":867,"女":868,"好":869,"子":870,"孩":871,"定":872,"宝":873,"对":874,"射":875,"小":876,"尖":877,"山":878,"川":879,"左":880,"巴":881,"年":882,"应":883,"心":884,"思":885,"急":886,"性":887,"患":888,"意":889,"感":890,"我":891,"或":892,"救":893,"散":894,"新":895,"方":896,"无":897,"日":898,"时":899,"明":900,"是":901,"會":902,"月":903,"有":904,"期":905,"木":906,"术":907,"来":908,"松":909,"果":910,"树":911,"根":912,"桃":913,"毒":914,"毛":915,"水":916,"活":917,"海":918,"清":919,"湯":920,"灵":921,"牛":922,"物":923,"状":924,"理":925,"瓜":926,"瓣":927,"甘":928,"生":929,"用":930,"當":931,"疗":932,"病":933,"痛":934,"瘤":935,"白":936,"百":937,"的":938,"皮":939,"相":940,"眼":941,"石":942,"竹":943,"糖":944,"素":945,"紫":946,"红":947,"结":948,"者":949,"肝":950,"肠":951,"肺":952,"胡":953,"能":954,"脉":955,"腺":956,"自":957,"舌":958,"节":959,"花":960,"苦":961,"茶":962,"草":963,"药":964,"莲":965,"菌":966,"菜":967,"蕨":968,"藤":969,"血":970,"行":971,"西":972,"要":973,"见":974,"解":975,"豆":976,"通":977,"部":978,"重":979,"野":980,"金":981,"长":982,"限":983,"院":984,"青":985,"面":986,"香":987,"马":988,"骨":989,"高":990,"鸡":991,"麦":992,"麻":993,"黃":994,"黄":995,"龙":996,"ꞌ":997,"푚":998,"풙":999,"﻿":1000,"=\"":1001,"><":1002,"td":1003,"n=\"":1004,"li":1005,"ali":1006,"</":1007,"><td":1008,"alig":1009,"align=\"":1010,"pa":1011,"spa":1012,"span=\"":1013,"1\"":1014,"span=\"1\"":1015,"</td":1016,"</td><td":1017,"▁align=\"":1018,"ol":1019,"▁c":1020,"le":1021,"▁r":1022,"ow":1023,"▁col":1024,"▁row":1025,"></":1026,"▁rowspan=\"1\"":1027,"tr":1028,"▁colspan=\"1\"":1029,"er":1030,"▁colspan=\"1\">":1031,"t\"":1032,"en":1033,"▁v":1034,"lef":1035,"left\"":1036,"▁align=\"left\"":1037,"▁valign=\"":1038,"▁align=\"c":1039,"to":1040,"ent":1041,"th":1042,"enter":1043,"enter\"":1044,"▁align=\"center\"":1045,"><tr":1046,"></tr":1047,"0.":1048,"</td><td>":1049,"bo":1050,"top":1051,"></tr><tr":1052,"top\"":1053,"▁valign=\"top\"":1054,"ar":1055,"▁(":1056,"></tr><tr><td":1057,"\">":1058,"id":1059,"></td":1060,"har":1061,"it":1062,"</td></tr><tr><td":1063,"00":1064,"in":1065,"re":1066,"▁align=\"left\">":1067,"ml":1068,"></td><td":1069,"old":1070,"bold":1071,"▁s":1072,"itali":1073,"italic":1074,"on":1075,"tom":1076,"su":1077,"hr":1078,"bot":1079,"bottom":1080,"ty":1081,"hr/":1082,"><th":1083,"n#":1084,"#n#":1085,"or":1086,"ti":1087,")</td><td":1088,"1.":1089,"an":1090,"▁valign=\"bottom":1091,"italic>":1092,"al":1093,"mid":1094,"dle":1095,"<hr/":1096,"middle":1097,"▁valign=\"middle":1098,"▁valign=\"middle\"":1099,"ht":1100,"/><td":1101,"dy":1102,"es":1103,"▁valign=\"bottom\">":1104,"▁align=\"char":1105,"▁char":1106,"ea":1107,"ta":1108,"body":1109,"bold>":1110,"▁char=\"":1111,"sup":1112,"<hr/></td><td":1113,"3.":1114,"▁align=\"center\">":1115,"ref":1116,"th><th":1117,"tyle":1118,"ww":1119,"ead":1120,"ro":1121,"lin":1122,"xref":1123,"ble":1124,"▁char=\".":1125,"99":1126,"mml":1127,"ed":1128,"ac":1129,"der":1130,"2.":1131,"▁char=\".\"":1132,"e=\"":1133,"▁1":1134,"▁th":1135,"table":1136,"</th><th":1137,"sup>":1138,"0.0":1139,"▁o":1140,"▁f":1141,"▁colspan=\"1\">1":1142,"bor":1143,")</td><td>":1144,"html":1145,"border":1146,"</td></tr><tr><td>":1147,"ead><":1148,"▁±":1149,"oli":1150,"is":1151,"▁re":1152,"tion":1153,"ath":1154,"olid":1155,"><bold>":1156,"▁align=\"char\">":1157,"▁m":1158,"</bold":1159,"#n#<":1160,"ic":1161,"mml:":1162,"link":1163,"mml:m":1164,"am":1165,"▁of":1166,"at":1167,"▁align=\"char\"":1168,"pe=\"":1169,"ig":1170,"▁p":1171,"as":1172,"▁b":1173,"us":1174,"▁colspan=\"1\">0.":1175,"▁colspan=\"":1176,"</italic>":1177,"▁colspan=\"1\"/><td":1178,"g/":1179,"▁<":1180,"ing":1181,"4.":1182,"▁0.":1183,"▁an":1184,"0</td><td":1185,"id=\"":1186,"▁x":1187,"▁d":1188,"▁in":1189,"tyle=\"":1190,"▁style=\"":1191,"></td></tr><tr><td":1192,"ns":1193,"5.":1194,"-ty":1195,"-type=\"":1196,"1</td><td":1197,"\t\t":1198,"tp":1199,"col":1200,"//":1201,"://":1202,"http":1203,"199":1204,"style":1205,"t;":1206,"=\"http":1207,"w.":1208,"www.":1209,"://www.":1210,"▁w":1211,"rou":1212,"2</td><td":1213,"org/":1214,"=\"http://www.":1215,"ns:":1216,"▁xml":1217,"▁xmlns:":1218,"h4":1219,"body><":1220,"head><":1221,"html><":1222,"xlink":1223,"body></":1224,"▁ref":1225,"/M":1226,"6.":1227,"=\"http://www.w":1228,"3.org/":1229,"=\"http://www.w3.org/":1230,"=\"http://www.w3.org/199":1231,"10":1232,"20":1233,"></tr></":1234,"▁rid=\"":1235,"/Math":1236,"▁ref-type=\"":1237,"▁solid":1238,"grou":1239,"▁and":1240,"5</td><td":1241,"3</td><td":1242,"border-":1243,"bi":1244,"7.":1245,"ge":1246,"4</td><td":1247,"</xref":1248,"8.":1249,"><italic>":1250,"ation":1251,"sub":1252,"ak":1253,"<sup>":1254,"CT":1255,"om":1256,"ter":1257,"el":1258,"0000":1259,"6</td><td":1260,"#n#</td><td":1261,"bre":1262,"rig":1263,"em":1264,"break":1265,"break/":1266,"50":1267,"ack":1268,"8</td><td":1269,"br":1270,"/></tr><tr><td":1271,"▁e":1272,"7</td><td":1273,"ec":1274,"9.":1275,"</td><td>1":1276,"▁1p":1277,"group":1278,"os":1279,"▁a":1280,"▁colspan=\"1\">2":1281,"▁(1":1282,"▁rowspan=\"":1283,"▁1px":1284,"ul":1285,"</xref>":1286,"▁to":1287,"</italic":1288,"▁the":1289,"um":1290,"9</td><td":1291,"<xref":1292,"/><td/><td":1293,"bibr":1294,"▁ref-type=\"bibr":1295,"><col":1296,"</td><td>0.":1297,"break/>":1298,"2\"":1299,"><mml:m":1300,"▁C":1301,"les":1302,"12":1303,"ur":1304,"▁(0.":1305,"</sup":1306,")</td></tr><tr><td":1307,"sub>":1308,"ce":1309,"▁n":1310,"▁h":1311,"▁style=\"border-":1312,"te":1313,"ram":1314,"un":1315,"ion":1316,"sid":1317,"▁bl":1318,"13":1319,"}</":1320,"PE":1321,"▁=":1322,"</bold>":1323,"</th><th>":1324,"9/":1325,"righ":1326,"right\"":1327,"▁align=\"right\"":1328,"▁colspan=\"1\">#n#<":1329,"lt;":1330,"</bold></td><td":1331,"&lt;":1332,"ules":1333,"border:":1334,"<hr/></td></tr><tr><td":1335,"ve":1336,"14":1337,"▁valign=\"bottom\"":1338,"groups":1339,"▁{":1340,"DO":1341,"▁colspan=\"1\">3":1342,"/><col":1343,"><hr/":1344,"▁2":1345,"▁S":1346,"15":1347,"▁table":1348,"▁fram":1349,"><tr><td":1350,"style></":1351,"▁black":1352,"ML":1353,"▁rules":1354,"▁black;":1355,"table></":1356,"YPE":1357,"▁td":1358,"▁table,":1359,"DOCT":1360,"DOCTYPE":1361,"style>":1362,"▁th,":1363,"h4><":1364,"!DOCTYPE":1365,">\n":1366,"▁html><":1367,"html>\n":1368,"▁<!DOCTYPE":1369,"body><table":1370,"head><style>":1371,"head><body><table":1372,"html><body><":1373,"body></html>\n":1374,"}</style></":1375,"▁{border:":1376,"▁rules=\"":1377,"▁black;}</style></":1378,"h4><head><style>":1379,"▁html><html><body><":1380,"▁black;}</style></head><body><table":1381,"▁html><html><body><h4":1382,"table></body></html>\n":1383,"▁frame=\"":1384,"=\"http://www.w3.org/1999/":1385,"▁xmlns:xlink":1386,"xlink\"":1387,"=\"http://www.w3.org/1999/xlink\"":1388,"▁xmlns:xlink=\"http://www.w3.org/1999/xlink\"":1389,"></tr></t":1390,"tbody":1391,"body></table></body></html>\n":1392,"></tr></tbody></table></body></html>\n":1393,"</sup>":1394,"tic":1395,"oc":1396,"es\"":1397,"sides\"":1398,"hsides\"":1399,"▁frame=\"hsides\"":1400,"▁rules=\"groups":1401,"▁rules=\"groups\"":1402,"16":1403,"ML\"":1404,"8/Math":1405,"mml=\"http://www.w3.org/199":1406,"▁xmlns:mml=\"http://www.w3.org/199":1407,"/MathML\"":1408,"8/Math/MathML\"":1409,"▁xmlns:mml=\"http://www.w3.org/1998/Math/MathML\"":1410,"1.0":1411,"thead><":1412,"><thead":1413,"></tr></thead><":1414,"></tr></thead><tbody":1415,"il":1416,"▁(2":1417,"▁A":1418,"2\">":1419,"▁html><html><body><h4>":1420,"</h4><head><style>":1421,"<break/>":1422,"></th><th":1423,"</th":1424,"11":1425,"ia":1426,"solid":1427,"im":1428,":solid":1429,"od":1430,"et":1431,"age":1432,"</td><td>2":1433,"17":1434,"</td></tr></tbody></table></body></html>\n":1435,"0.00":1436,"%)</td><td":1437,"18":1438,"p>":1439,"▁colspan=\"1\">N":1440,"▁colspan=\"1\"><bold>":1441,"▁P":1442,"▁rowspan=\"1\">":1443,"▁al":1444,"></tr></thead><tbody><tr><td":1445,"▁span=\"1\"":1446,"▁[":1447,"use":1448,"▁I":1449,"▁colspan=\"1\">1.":1450,"▁colspan=\"1\">C":1451,"▁colspan=\"1\">4":1452,"line":1453,"▁M":1454,"><tr><th":1455,"19":1456,"▁pa":1457,"30":1458,"row":1459,"ver":1460,"ith":1461,"co":1462,"or:":1463,"ch":1464,"ys":1465,"ph":1466,"if":1467,"25":1468,"t-":1469,"000000":1470,"</mml:m":1471,"#000000":1472,"orm":1473,")<hr/></td><td":1474,"ra":1475,"\t\t\t\t":1476,"#n#\t\t\t\t":1477,"#n#\t\t\t\t\\":1478,"ot":1479,"-f":1480,"><thead><tr><th":1481,"ati":1482,"▁0.50":1483,"▁ref-type=\"bibr\"":1484,"▁0.50p":1485,"nd":1486,"▁T":1487,"res":1488,"▁ref-type=\"bibr\">":1489,"</td></tr><tr":1490,"▁g":1491,"▁<italic>":1492,"ts":1493,"▁valign=\"top\"><td":1494,"**":1495,"▁colspan=\"1\">A":1496,"95":1497,"▁colspan=\"1\">S":1498,"▁with":1499,"▁(3":1500,"24":1501,"▁rid=\"B":1502,"e</td><td":1503,"23":1504,"▁colspan=\"1\">5":1505,"CA":1506,"▁pro":1507,"▁colspan=\"2\"":1508,"uc":1509,"▁colspan=\"1\">P":1510,"</xref>]":1511,"▁span=\"1\"/><col":1512,"ear":1513,"▁N":1514,"▁char=\"(":1515,"▁<hr/></td><td":1516,"tor":1517,"CR":1518,"</sup></td><td":1519,"40":1520,"</th></tr></thead><tbody><tr><td":1521,"#n#<italic>":1522,"pac":1523,"</italic></td><td":1524,"<italic>":1525,"ment":1526,"▁for":1527,"▁con":1528,"▁rules=\"groups\"><thead><tr><th":1529,"▁1.":1530,"ate":1531,"▁3":1532,"▁colspan=\"1\">M":1533,"22":1534,"▁thin":1535,"▁colspan=\"1\">0.0":1536,"og":1537,"</td><td>3":1538,"▁char=\"(\"":1539,"▁colspan=\"1\"/></tr><tr><td":1540,"▁border-":1541,";\"":1542,"s</td><td":1543,"60":1544,"000":1545,"GA":1546,"kage":1547,"%)":1548,"package":1549,"usepackage":1550,"usepackage{":1551,"ir":1552,"ex":1553,"▁align=\"right\">":1554,"></mml:m":1555,"</bold></th><th":1556,"28":1557,"27":1558,"▁colspan=\"1\"><italic>":1559,"#n#\t\t\t\t\\usepackage{":1560,"26":1561,"▁H":1562,"tu":1563,"#n#<bold>":1564,"▁colspan=\"1\">−":1565,"ly":1566,"▁colspan=\"1\">6":1567,"33":1568,"▁(4":1569,"▁style=\"border-bottom":1570,"ity":1571,"<sub>":1572,"</p":1573,"ding":1574,"▁et":1575,"ell":1576,"▁0.0":1577,"0.8":1578,"><p>":1579,"se":1580,"▁ex":1581,"▁0.50pt;":1582,"▁al.":1583,"45":1584,"ef":1585,"▁or":1586,"29":1587,"▁y":1588,"qu":1589,"ical":1590,"op":1591,"▁colspan=\"1\">T":1592,"1</td></tr><tr><td":1593,"▁D":1594,"0.7":1595,"▁(1.":1596,"▁R":1597,"▁rid=\"CR":1598,"right":1599,"0.9":1600,"▁#000000":1601,"35":1602,"▁sco":1603,"▁valign=\"top\">":1604,"</sub>":1605,"▁rowspan=\"2\"":1606,"▁(5":1607,"48":1608,"ut":1609,"▁tr":1610,"0.5":1611,"1</td><td>":1612,"3\"":1613,"▁colspan=\"1\">7":1614,"ted":1615,"ess":1616,"38":1617,"▁l":1618,"36":1619,"left":1620,"><hr/></td><td":1621,"37":1622,"▁B":1623,"47":1624,"ence":1625,"or:#":1626,"46":1627,"▁style=\"border-bottom:solid":1628,"%)</td><td>":1629,"ase":1630,"0.6":1631,"▁ac":1632,"ale":1633,"ass":1634,")</td></tr><tr><td>":1635,"</bold>#n#":1636,"n\"":1637,"ground":1638,"/><th":1639,"▁rowspan=\"2\">":1640,"ackground":1641,"ents":1642,"GT":1643,"lis":1644,"%</td><td":1645,"left:":1646,"49":1647,"▁thin\"":1648,"inline":1649,"><hr/></td></tr><tr><td":1650,"80":1651,"▁colspan=\"1\">R":1652,"</td><td>1.":1653,"ean":1654,"up":1655,"/><td>":1656,"▁colspan=\"1\">2.":1657,"▁t":1658,"39":1659,"▁L":1660,"ian":1661,"▁align=\"left\"><bold>":1662,"▁F":1663,"▁align=\"left\"/><td":1664,"▁</td><td":1665,"75":1666,"/></tr><tr><td>":1667,"1,":1668,"44":1669,"In":1670,"ad":1671,"▁on":1672,"▁colspan=\"1\"><":1673,"1)</td><td":1674,"iv":1675,"-col":1676,"▁E":1677,"alu":1678,"ackground-col":1679,"69":1680,"ated":1681,"▁id=\"":1682,"▁#000000\"":1683,"ial":1684,"▁align=\"center\"><bold>":1685,"34":1686,"▁style=\"b":1687,"70":1688,"▁colspan=\"1\">8":1689,"▁G":1690,"▁[<xref":1691,"eg":1692,"gt;":1693,"&gt;":1694,"ep":1695,"▁colspan=\"2\">":1696,"idth":1697,"math":1698,"▁5":1699,"ff":1700,"n</italic>":1701,"ap":1702,"65":1703,"3\">":1704,"ers":1705,"2)</td><td":1706,"</td><td>5":1707,"00</td><td":1708,"3)</td><td":1709,"ay":1710,"▁style=\"background-col":1711,"67":1712,"t-link":1713,"ym":1714,"</italic>#n#":1715,"21":1716,"▁ref-type=\"table":1717,"▁ref-type=\"table-f":1718,"90":1719,"▁20":1720,"▁colspan=\"1\">H":1721,"▁scope=\"":1722,"▁char=\"±":1723,"▁dis":1724,"▁style=\"background-color:#":1725,"tex":1726,"ary":1727,"</italic></":1728,"▁(6":1729,"▁width":1730,"ies":1731,"▁2.":1732,"▁com":1733,"and":1734,"per":1735,"▁valign=\"bottom\"><bold>":1736,"CC":1737,")</th><th":1738,"A</td><td":1739,"▁colspan=\"1\">D":1740,"▁colspan=\"1\">#n#<bold>":1741,"▁(m":1742,"–</td><td":1743,"ula":1744,"▁width=\"":1745,"▁at":1746,"ri":1747,"<sup>a":1748,"32":1749,"4)</td><td":1750,"sion":1751,"%\"":1752,"▁align=\"left\">1":1753,"▁colspan=\"1\">F":1754,"</bold>#n#</td><td":1755,"4\"":1756,"ams":1757,"ber":1758,"▁(<italic>":1759,"85":1760,"Yes":1761,"ine":1762,"-0":1763,"▁colspan=\"1\">9":1764,"▁char=\"±\"":1765,"▁ref-type=\"table-fn\"":1766,"–1.":1767,"▁O":1768,"></tr><tr><th":1769,"8)</td><td":1770,"42":1771,"ther":1772,"▁ch":1773,"43":1774,"}#n#\t\t\t\t\\usepackage{":1775,"▁colspan=\"1\">L":1776,"por":1777,"▁10":1778,"-</td><td":1779,"tim":1780,"ant":1781,"ub":1782,"66":1783,"jus":1784,"end":1785,"dding":1786,"5\"":1787,"ple":1788,"7)</td><td":1789,"&lt;0.00":1790,"padding":1791,"rom":1792,"/><td/><td/><td/><td":1793,"row><mml:m":1794,"▁colspan=\"1\">G":1795,"</td><td>N":1796,"▁<xref":1797,"AT":1798,"▁colspan=\"1\">3.":1799,"pec":1800,"><sup>":1801,"▁cell":1802,"</td><td>−":1803,"</td><td>0.0":1804,"6)</td><td":1805,"68":1806,"▁colspan=\"1\">B":1807,"55":1808,"acter":1809,"ain":1810,"▁pati":1811,"▁(7":1812,"ormula":1813,"▁le":1814,"▁0.00":1815,"cc":1816,"▁char=\".\">":1817,"alue":1818,"▁style=\"border-right":1819,"tent":1820,"ive":1821,"▁+":1822,"eal":1823,"one":1824,"▁year":1825,"-formula":1826,"78":1827,"▁colspan=\"1\">0</td><td":1828,"98":1829,"inline-formula":1830,"</sup>#n#":1831,"</td><td>4":1832,"tiv":1833,"are":1834,"link:":1835,"▁xlink:":1836,"s.":1837,"9)</td><td":1838,"-c":1839,"2.0":1840,"ans":1841,"</td><td>0":1842,"▁colspan=\"1\">#n#":1843,"),":1844,"fer":1845,"▁4":1846,"▁colspan=\"1\">(":1847,"anc":1848,"▁colspan=\"1\">E":1849,"enc":1850,"2,":1851,"he":1852,"▁(n":1853,"77":1854,"href":1855,"▁xlink:href":1856,"▁align=\"char\">0.":1857,"▁style=\"border-right:solid":1858,"</bold></":1859,"▁align=\"left\">N":1860,"est":1861,"5)</td><td":1862,"ek":1863,"31":1864,"tein":1865,"</sup></":1866,"ag":1867,"88":1868,"▁sta":1869,"▁align=\"left\">C":1870,"64":1871,"▁colspan=\"1\">1</td><td":1872,"▁align=\"center\">1":1873,"tif":1874,"</mml:mo":1875,"</p><p>":1876,"ument":1877,"top:":1878,"ome":1879,"iz":1880,"</bold></td></tr><tr><td":1881,"▁(%)":1882,"▁(8":1883,"-left:":1884,"▁colspan=\"1\">#n#<italic>":1885,"padding-left:":1886,"▁style=\"padding-left:":1887,"▁align=\"left\">S":1888,"cl":1889,"ard":1890,"[<xref":1891,"red":1892,"tern":1893,"58":1894,"57":1895,"▁colspan=\"1\">I":1896,"</mml:mi":1897,"ocument":1898,"97":1899,"2</td></tr><tr><td":1900,"raph":1901,"▁align=\"left\">0.":1902,"igh":1903,"st":1904,"▁da":1905,"ative":1906,"vel":1907,"▁per":1908,"▁by":1909,"tive":1910,"▁align=\"left\">P":1911,"▁res":1912,"bold><italic>":1913,"▁align=\"left\">A":1914,"or:#000000":1915,"95%":1916,"GG":1917,"ext-link":1918,"▁valign=\"top\"><td>":1919,"document":1920,"ealth":1921,"io":1922,"56":1923,"▁color:#000000":1924,"▁colspan=\"3\"":1925,"ight":1926,"Un":1927,"pe":1928,"▁colspan=\"1\">4.":1929,"▁(2.":1930,"▁#n#\t\t\t\t\\usepackage{":1931,"▁#n#\t\t\t\t\\usepackage{ams":1932,"▁align=\"center\">0.":1933,"ou":1934,"▁-":1935,"▁ad":1936,"59":1937,"ab":1938,"▁xlink:href=\"":1939,"ens":1940,"otal":1941,"ance":1942,"▁colspan=\"1\">10":1943,"3</td></tr><tr><td":1944,"</bold><hr/></td><td":1945,"▁scope=\"row":1946,"▁stu":1947,"▁scope=\"row\"":1948,"▁colspan=\"1\">.":1949,"▁colspan=\"1\">0":1950,"79":1951,"min":1952,"a</td><td":1953,"lo":1954,"▁(0.0":1955,"▁color:#000000;\"":1956,"item":1957,"trol":1958,"2</td><td>":1959,"3.0":1960,"umber":1961,"ition":1962,"76":1963,"NA":1964,"1<hr/></td><td":1965,"5.0":1966,"4\">":1967,"s,":1968,"ves":1969,"+</td><td":1970,"tify":1971,"▁is":1972,"TT":1973,"▁align=\"left\">M":1974,"justify":1975,"ng":1976,"lic":1977,"▁align=\"justify":1978,"10%\"":1979,"▁k":1980,"▁border-bottom":1981,"▁CI":1982,"▁co":1983,"*</td><td":1984,"▁(0":1985,"96":1986,"under":1987,"olog":1988,"bs":1989,"raphic":1990,"▁li":1991,"▁6":1992,"</td><td>6":1993,"AA":1994,"▁str":1995,"pt":1996,"istic":1997,"41":1998,"▁align=\"left\">2":1999,"▁style=\"padding-left:10%\"":2000,"</italic>#n#</td><td":2001,"▁al.,":2002,"▁border-bottom:":2003,"-1":2004,"87":2005,"▁W":2006,"3,":2007,"we":2008,".</td><td":2009,"▁colspan=\"1\">0.00":2010,"▁&lt;":2011,"89":2012,"ip":2013,"ific":2014,"▁colspan=\"1\">–</td><td":2015,"52":2016,"86":2017,"SD":2018,"▁patients":2019,"yl":2020,"/></":2021,"><mml:mo":2022,"4</td></tr><tr><td":2023,"▁×":2024,"▁3.":2025,"▁be":2026,"▁from":2027,"all":2028,"onth":2029,"list-":2030,"no":2031,"▁align=\"left\"><italic>":2032,"rs":2033,"II":2034,"<sup>b":2035,"</td><td>–":2036,"▁rid=\"T":2037,"gen":2038,"our":2039,"</sub":2040,"▁0":2041,"▁inf":2042,"▁colspan=\"1\">O":2043,"▁de":2044,"</th></tr><tr><th":2045,"▁%":2046,"list-item":2047,"200":2048,"ore":2049,"▁id=\"M":2050,"-math":2051,"ange":2052,"▁we":2053,"</mml:mn":2054,"54":2055,"3</td><td>":2056,"4.0":2057,"▁as":2058,"1</td></tr><tr><td>":2059,"ign":2060,"</xref>,":2061,"i>":2062,"100":2063,"]</td><td":2064,"y</td><td":2065,"acteristic":2066,"▁align=\"left\"/><col":2067,"amp":2068,"74":2069,"p</italic>":2070,"eat":2071,"▁align=\"left\">1.":2072,"▁(9":2073,"▁V":2074,"ction":2075,"▁align=\"left\">T":2076,"ood":2077,"▁im":2078,"</sup></xref":2079,"53":2080,"n>":2081,"▁valign=\"bottom\">0.":2082,"ib":2083,"▁wh":2084,"ist":2085,"ke":2086,"▁par":2087,"ne":2088,"▁align=\"justify\"":2089,"-g":2090,"ations":2091,"▁gen":2092,"▁me":2093,"pro":2094,"ast":2095,"o</td><td":2096,"▁(<italic>n</italic>":2097,"ression":2098,"gn":2099,"▁inter":2100,"▁(3.":2101,"ere":2102,"pon":2103,"duc":2104,"84":2105,"-m":2106,"ular":2107,"<break/>(":2108,"▁colspan=\"4\"":2109,"</td><td>7":2110,"▁align=\"char\">1":2111,"▁protein":2112,"▁(−":2113,"ater":2114,"aria":2115,"ud":2116,"IE":2117,"▁colspan=\"1\">#n#<break/>":2118,"▁<hr/></td></tr><tr><td":2119,"▁colspan=\"1\">5.":2120,"▁0.50pt\"":2121,"mo":2122,"><mml:mrow><mml:m":2123,"1\">":2124,"5</td></tr><tr><td":2125,"ong":2126,"63":2127,"1)</td><td>":2128,"94":2129,"atives":2130,"▁colspan=\"1\"/><th":2131,"av":2132,"72":2133,"ild":2134,"▁colspan=\"1\">#n#</td><td":2135,"▁(<xref":2136,"6.0":2137,"</sup>#n#</td><td":2138,"</td><td>2.":2139,"odel":2140,"62":2141,"6\"":2142,"o.":2143,"73":2144,"▁border-right":2145,"▁style=\"border-left:":2146,"▁se":2147,"C</td><td":2148,"</sup></td><td>":2149,"lity":2150,"▁border-right:":2151,"cre":2152,"-con":2153,"</th></tr></thead><tbody><tr><td>":2154,"83":2155,"▁align=\"center\">1.":2156,"▁ass":2157,"-1.":2158,"-3":2159,"▁border-top:":2160,"ide":2161,"po":2162,"itive":2163,"></mml:math":2164,"ection":2165,"low":2166,"nam":2167,"▁colspan=\"3\">":2168,"tal":2169,"▁align=\"center\">2":2170,".</h4><head><style>":2171,"Gen":2172,"tex-math":2173,"{document":2174,"es</td><td":2175,"ew":2176,"ternatives":2177,"underline":2178,"–1":2179,"ure":2180,"tory":2181,"alternatives":2182,"▁month":2183,"▁pre":2184,"%)</td></tr><tr><td":2185,"iffer":2186,"▁–":2187,"▁align=\"center\"/><col":2188,"IEq":2189,"5,":2190,"82":2191,"</mml:mo><mml:m":2192,"▁valign=\"bottom\">1":2193,"5\">":2194,"}#n#\t\t\t\t\\":2195,"emale":2196,"ased":2197,"ffec":2198,"▁colspan=\"1\">2</td><td":2199,"▁&gt;":2200,"▁years":2201,"ork":2202,"><mml:mo>":2203,"</p>":2204,"▁med":2205,"▁reg":2206,"▁study":2207,")</th><th>":2208,"92":2209,"93":2210,"P</italic>":2211,"ug":2212,"▁colspan=\"1\">20":2213,"▁(%)</td><td":2214,"7.0":2215,"acteristics":2216,"▁ar":2217,"par":2218,"51":2219,"▁group":2220,"ang":2221,"</td><td>8":2222,"ormal":2223,"6</td></tr><tr><td":2224,"</td><td>C":2225,"vent":2226,"▁(4.":2227,"-s":2228,"▁4.":2229,"<sup>−":2230,"▁us":2231,"▁tim":2232,"▁pos":2233,"ill":2234,"▁align=\"left\">3":2235,"▁colspan=\"1\">#n#<break/>#n#</td><td":2236,"S</td><td":2237,"rim":2238,"▁colspan=\"1\">-":2239,"3)</td><td>":2240,"></mml:mrow":2241,"erv":2242,"4,":2243,"71":2244,"▁colspan=\"1\">&lt;":2245,"ation</td><td":2246,"own":2247,"tem":2248,"▁U":2249,"ss":2250,"ose":2251,"▁pl":2252,"8.0":2253,"<sup>2":2254,"▁In":2255,"▁align=\"left\">R":2256,"alys":2257,"$$":2258,"ous":2259,"▁health":2260,"▁fac":2261,"▁valign=\"bottom\">1.":2262,"▁colspan=\"1\">6.":2263,"erence":2264,"2.5":2265,"8</td></tr><tr><td":2266,"7</td></tr><tr><td":2267,"▁ph":2268,"ariable":2269,"D</td><td":2270,"</xref>]</td><td":2271,"ma":2272,"▁200":2273,"-graphic":2274,"▁colspan=\"1\">-</td><td":2275,"inline-graphic":2276,"</sup></td></tr><tr><td":2277,"rac":2278,"iR":2279,"-content":2280,"61":2281,"▁rowspan=\"1\"><bold>":2282,"2)</td><td>":2283,"***":2284,"▁html><html><body><h4>C":2285,"▁−":2286,"</xref>]</td></tr><tr><td":2287,"pl":2288,"▁sub":2289,"▁align=\"char\">0.0":2290,"eter":2291,"▁colspan=\"1\">W":2292,"▁7":2293,"colgroup":2294,"▁ind":2295,"Yes</td><td":2296,"▁align=\"char\">1.":2297,"E-0":2298,"7\"":2299,"ital":2300,")<hr/></td></tr><tr><td":2301,"▁colspan=\"5\"":2302,"AC":2303,"ancer":2304,"▁valign=\"bottom\">2":2305,"▁not":2306,"com":2307,"GC":2308,"<sub>2":2309,"#n#</td></tr><tr><td":2310,"port":2311,"4)</td><td>":2312,"</italic><":2313,"10</td><td":2314,"▁colspan=\"1\">1.0":2315,"Age":2316,")</td></tr><tr":2317,"bility":2318,"linical":2319,"tus":2320,".0":2321,"ulation":2322,"</td><td>10":2323,"▁rules=\"groups\"><thead><tr><th>":2324,"ily":2325,"▁8":2326,"</bold></th":2327,"on-":2328,"▁(5.":2329,"▁bet":2330,"ium":2331,"list":2332,"ort":2333,"-00":2334,"9</td></tr><tr><td":2335,"oci":2336,"▁<sup>":2337,"▁that":2338,"▁colspan=\"1\">V":2339,"R</td><td":2340,"▁K":2341,"▁activ":2342,"ween":2343,"></inline-formula":2344,"ct":2345,"9.0":2346,"sul":2347,"</td><td>A":2348,"</xref></td></tr><tr><td":2349,"</td><td>S":2350,"mun":2351,"-v":2352,"</td><td>P":2353,"</td><td>M":2354,"0.2":2355,"▁trans":2356,"mon":2357,"–2.":2358,"▁align=\"left\">H":2359,"</td><td>(":2360,"</italic></bold":2361,"lu":2362,"▁align=\"left\">D":2363,"><mml:math":2364,"0.3":2365,"▁colspan=\"1\">In":2366,"▁disea":2367,"sure":2368,"cri":2369,"tation":2370,"arian":2371,"▁rowspan=\"3\"":2372,"</td><td>9":2373,"▁en":2374,"▁value":2375,"educ":2376,"81":2377,"set":2378,"0.4":2379,"und":2380,"▁colspan=\"1\">7.":2381,"</td><td>-":2382,"</p></td><td":2383,"pan":2384,"7)</td><td>":2385,"▁rid=\"TN":2386,"▁colspan=\"1\">3</td><td":2387,"▁sur":2388,"eatment":2389,"named":2390,"</td><td>3.":2391,"named-content":2392,"-2":2393,"▁colspan=\"1\">&lt;0.00":2394,"▁align=\"left\">F":2395,"▁qu":2396,"/><td/></tr><tr><td":2397,"▁(1.0":2398,"6)</td><td>":2399,"6,":2400,"fter":2401,"91":2402,"Total":2403,"▁(95%":2404,"▁rowspan=\"3\">":2405,"▁differ":2406,"MI":2407,"0.1":2408,"imal":2409,"ption":2410,"tric":2411,"8)</td><td>":2412,"5)</td><td>":2413,"▁ext-link":2414,"▁ext-link-type=\"":2415,"</td><td>#n#<italic>":2416,"ond":2417,"▁data":2418,"▁align=\"left\">5":2419,"▁valign=\"bottom\">-":2420,"ual":2421,"▁(6.":2422,"tis":2423,"de":2424,"ost":2425,"isk":2426,"▁ref-type=\"f":2427,"alysis":2428,"▁between":2429,"</ext-link":2430,"▁align=\"char\">−":2431,"▁level":2432,"▁5.":2433,"ngth":2434,"><colgroup":2435,"/></colgroup":2436,"3<hr/></td><td":2437,"Ref":2438,"▁align=\"center\">3":2439,"▁align=\"center\">0.0":2440,"▁align=\"left\">0.0":2441,"▁align=\"left\">4":2442,"tors":2443,")</td></tr></tbody></table></body></html>\n":2444,"</td><td>#n#<bold>":2445,"▁mean":2446,"ality":2447,"ite":2448,"9)</td><td>":2449,"type":2450,"▁ne":2451,"▁rid=\"t":2452,"gre":2453,"year":2454,"▁cl":2455,"mol":2456,"▁align=\"left\"/></tr><tr><td":2457,"king":2458,"CI":2459,"><mml:mi>":2460,"ob":2461,"</td><td>0.00":2462,"▁colspan=\"1\">#n#<p>":2463,"ll":2464,"▁align=\"char\">2":2465,")</bold></td><td":2466,"ace":2467,"▁sh":2468,"ied":2469,"▁(20":2470,"/L":2471,"FF":2472,"Ar":2473,"▁1.0":2474,"osis":2475,"12</td><td":2476,"text":2477,"ontrol":2478,"</sub></td><td":2479,"▁colspan=\"4\">":2480,"▁was":2481,"▁ref-type=\"fn\"":2482,"vention":2483,"Mean":2484,"-C":2485,"▁un":2486,"▁week":2487,"vi":2488,"▁treatment":2489,"▁valign=\"bottom\"><italic>":2490,"OR":2491,"▁align=\"left\">L":2492,"▁colspan=\"1\"><break/":2493,"</xref></td><td":2494,"tici":2495,"▁time":2496,"▁colspan=\"1\">12":2497,"osp":2498,"▁(7.":2499,"ting":2500,"▁align=\"left\">B":2501,"1-":2502,"7,":2503,"/><td/></tr><tr><td>":2504,"▁colspan=\"1\">–":2505,"▁mo":2506,"g/d":2507,"{\\":2508,"4<hr/></td><td":2509,"sis":2510,"1–":2511,".00":2512,"▁colspan=\"1\">+</td><td":2513,"AS":2514,"▁colspan=\"1\">4</td><td":2515,"▁ap":2516,"ox":2517,"inal":2518,"</bold><":2519,"#n#<break/>":2520,"underline>":2521,"8\"":2522,"ling":2523,"8,":2524,"note":2525,"▁align=\"center\">-":2526,"cent":2527,"hy":2528,"11</td><td":2529,"ency":2530,"ten":2531,"-value":2532,"unction":2533,"3.3":2534,"arg":2535,"</xref>)</td></tr><tr><td":2536,"form":2537,"9,":2538,"..":2539,"▁(10":2540,"▁colspan=\"1\">8.":2541,"▁dia":2542,"%</td></tr><tr><td":2543,"5–":2544,"eth":2545,"▁control":2546,"ever":2547,"No":2548,"led":2549,"▁align=\"left\">E":2550,"></th":2551,"-000":2552,"▁age":2553,"▁<bold>":2554,"▁vs.":2555,"fs":2556,")<break/>":2557,"2<hr/></td><td":2558,"ax":2559,"▁are":2560,"ix":2561,"ture":2562,"GGA":2563,"aseline":2564,"▁min":2565,"6.7":2566,"ice":2567,"▁(SD":2568,"IV":2569,"Pro":2570,"15</td><td":2571,"▁scope=\"col":2572,"▁scope=\"col\"":2573,"SA":2574,"▁colspan=\"1\">U":2575,"<sup>c":2576,"rel":2577,">#n#</td><td":2578,"▁pres":2579,"▁cancer":2580,"able":2581,"ed</td><td":2582,"▁≥":2583,"cess":2584,"5<hr/></td><td":2585,"▁html><html><body><h4>S":2586,"</xref>#n#</td><td":2587,"▁(8.":2588,"▁sup":2589,"><list-item":2590,"></list-item":2591,"<sub>2</sub>":2592,"▁cor":2593,"entr":2594,"13</td><td":2595,"ree":2596,"ior":2597,"sc":2598,"N</italic>":2599,"tin":2600,"-note":2601,"T</td><td":2602,"▁score":2603,"yc":2604,"ari":2605,"gif":2606,"</sup></xref></td><td":2607,"}$$":2608,"14</td><td":2609,"gif\"":2610,"▁border":2611,"><bold><italic>":2612,"▁out":2613,"6<hr/></td><td":2614,"▁dur":2615,"▁care":2616,"▁characteristics":2617,"▁after":2618,"1.5":2619,"6\">":2620,"▁valign=\"bottom\">0.0":2621,"Ch":2622,"</td><td>T":2623,"CD":2624,"▁analysis":2625,"g/m":2626,"</p></list-item":2627,"/><td/><td>":2628,"▁use":2629,"▁exp":2630,"▁border=\"":2631,"yn":2632,"▁days":2633,"><inline-graphic":2634,"ire":2635,"edian":2636,"bib":2637,"▁colspan=\"6\"":2638,"▁span=\"1\"/":2639,"SE":2640,"</bold><hr/":2641,"▁spec":2642,"▁align=\"left\">#n#<italic>":2643,"▁9":2644,"</td><td>4.":2645,"CTT":2646,"▁colspan=\"1\"><break/></td><td":2647,"▁sign":2648,"/A":2649,"align":2650,"▁status":2651,"16</td><td":2652,"fn":2653,"ich":2654,"▁align=\"center\">4":2655,"ave":2656,"tical":2657,"urr":2658,"▁colspan=\"1\">0.5":2659,"▁effec":2660,"\"><td":2661,"egative":2662,"▁(9.":2663,"varian":2664,"(1":2665,"▁6.":2666,"▁acid":2667,"’s":2668,"▁car":2669,"cho":2670,"▁colspan=\"1\">0.8":2671,"▁months":2672,"eta":2673,"▁colspan=\"1\">5</td><td":2674,"▁align=\"left\">6":2675,"_20":2676,"2.7":2677,"▁model":2678,"ement":2679,"G</td><td":2680,"es,":2681,"▁colspan=\"1\">—":2682,"8<hr/></td><td":2683,"▁hy":2684,"▁border=\"1\"":2685,"3.5":2686,"ue":2687,"ticle":2688,"-d":2689,"amp;":2690,"&amp;":2691,"▁valign=\"bottom\">0":2692,"2.9":2693,"ing</td><td":2694,"ail":2695,"7.5":2696,"%)</td></tr><tr><td>":2697,"ST":2698,"2.2":2699,"ymb":2700,"7\">":2701,"An":2702,"ological":2703,"ren":2704,"▁(N":2705,"▁<break/>":2706,"#n#<sup>":2707,"▁work":2708,"1.4":2709,"▁am":2710,"fon":2711,"ery":2712,"</xref>)</td><td":2713,"1.7":2714,"▁No":2715,"space":2716,"▁colspan=\"1\">9.":2717,"9\"":2718,"rit":2719,"s</th><th":2720,"amily":2721,"▁colspan=\"1\">0.9":2722,"▁sp":2723,"GCA":2724,"iR-":2725,"▁colspan=\"1\">0.2":2726,"roup":2727,"▁colspan=\"1\">0.7":2728,"▁colspan=\"5\">":2729,"jec":2730,"ystem":2731,"umor":2732,"class":2733,"▁colspan=\"1\">13":2734,"%)<hr/></td><td":2735,"▁rel":2736,"▁colspan=\"1\">n":2737,"pos":2738,"}{":2739,"</td><td>–</td><td>–":2740,")</bold></th><th":2741,"▁align=\"center\">5":2742,"▁content":2743,"▁align=\"left\">G":2744,"1.2":2745,"▁html><html><body><h4>P":2746,"▁</td></tr><tr><td":2747,"2.6":2748,"2.8":2749,"argin":2750,"iver":2751,"2.3":2752,"ates":2753,"tro":2754,"2.4":2755,"rg":2756,"▁colspan=\"1\">K":2757,"ollow":2758,"▁<italic>n</italic>":2759,"Ex":2760,"ress":2761,"AP":2762,"▁high":2763,"▁style=\"border-top:":2764,",0":2765,"</italic><hr/></td><td":2766,"</p>#n#</td><td":2767,"</td><td>20":2768,"▁align=\"left\">–</td><td":2769,"17</td><td":2770,"1.3":2771,"ution":2772,"hi":2773,"ung":2774,"egin":2775,"▁math":2776,"-b":2777,"▁no":2778,"fic":2779,";border-":2780,"Qu":2781,"I</td><td":2782,"GF":2783,"</td></tr><tr><td>S":2784,"–2":2785,"3.8":2786,"><xref":2787,"AR":2788,"▁μ":2789,"length":2790,"ample":2791,"▁valign=\"top\"><tr><td":2792,"▁you":2793,"t</td><td":2794,"▁align=\"left\">−":2795,"▁valign=\"bottom\">3":2796,"1.8":2797,"</mml:mo><mml:mn>":2798,"ospital":2799,"ticipan":2800,"was":2801,"gif\"/></":2802,"></mml:msub":2803,"cor":2804,"-69":2805,"▁risk":2806,"tain":2807,"trac":2808,"kn":2809,"▁align=\"char\">3":2810,"▁colspan=\"1\">15":2811,"▁align=\"center\">-</td><td":2812,"/></colgroup><thead":2813,"▁disease":2814,"18</td><td":2815,"0\"":2816,"1.6":2817,"▁respon":2818,"ons":2819,"eas":2820,"oma":2821,"omen":2822,"/></tr></tbody></table></body></html>\n":2823,"L</td><td":2824,"ases":2825,"ccc":2826,"▁were":2827,"ech":2828,"3.7":2829,"▁patient":2830,"▁align=\"center\"><italic>":2831,"▁rules=\"groups\"><thead><tr><th/><th":2832,"3.6":2833,"5.5":2834,"▁colspan=\"1\">14":2835,"its":2836,"4.5":2837,"▁width=\"1":2838,"</td><td>R":2839,"99.":2840,"▁bo":2841,"▁ev":2842,"99</td><td":2843,"las":2844,"▁colspan=\"1\">0.6":2845,"ms":2846,"GGT":2847,"symb":2848,"odd":2849,"><list-item><p>":2850,"X</td><td":2851,"[12":2852,"▁activity":2853,"▁(100":2854,"ark":2855,"▁SD":2856,"ata":2857,"0.000":2858,"begin":2859,"><colgroup><col":2860,"<bold>":2861,"▁colspan=\"1\">0.3":2862,"\\end":2863,"<sup>2</sup>":2864,"9<hr/></td><td":2865,"ile":2866,"▁colspan=\"1\"><xref":2867,"idence":2868,"▁align=\"left\">(":2869,"▁7.":2870,"5.7":2871,"minimal":2872,"lec":2873,"▁12":2874,"pt]":2875,"><tex-math":2876,"begin{document":2877,"\\end{document":2878,"▁colspan=\"1\">6</td><td":2879,"}</tex-math":2880,"\\end{document}</tex-math":2881,"▁number":2882,"</italic></bold>":2883,"out":2884,"rsfs":2885,"variant":2886,"ts}":2887,"▁(I":2888,"bsy":2889,"\\document":2890,"mathrsfs":2891,"amsmath":2892,"fonts}":2893,"symb}":2894,"\\documentclass":2895,"emargin":2896,"ious":2897,"upgre":2898,"upgreek":2899,"ysym":2900,"sidemargin":2901,"wasysym":2902,"oddsidemargin":2903,"pt]{":2904,"wasysym}":2905,"setlength":2906,"{\\oddsidemargin":2907,"}{-69":2908,"[12pt]{":2909,"\\documentclass[12pt]{":2910,"setlength{\\oddsidemargin":2911,"}{-69pt":2912,"\\documentclass[12pt]{minimal":2913,"setlength{\\oddsidemargin}{-69pt":2914,"ize":2915,"ogen":2916,"M</td><td":2917,"</italic>,":2918,"▁</italic>":2919,"1/":2920,"▁meta":2921,"▁child":2922,"The":2923,"ural":2924,"▁style=\"background-color:#ccc":2925,"><alternatives":2926,"alternatives></inline-formula":2927,"▁style=\"background-color:#ccc\"><td":2928,"ER":2929,"▁id=\"IEq":2930,"▁mathvariant":2931,"▁mathvariant=\"":2932,"P</td><td":2933,"▁align=\"left\">0":2934,"rug":2935,"AD":2936,"TC":2937,"cin":2938,"-note-000":2939,"▁ref-type=\"bibr\">20":2940,"_IEq":2941,"▁style=\"border-bottom:":2942,"><alternatives><tex-math":2943,"}#n#\t\t\t\t\\usepackage{mathrsfs":2944,"}#n#\t\t\t\t\\usepackage{amsmath":2945,"}#n#\t\t\t\t\\usepackage{upgreek":2946,"}#n#\t\t\t\t\\usepackage{wasysym}":2947,"▁#n#\t\t\t\t\\usepackage{amsbsy":2948,"▁#n#\t\t\t\t\\usepackage{amsfonts}":2949,"▁#n#\t\t\t\t\\usepackage{amssymb}":2950,"}#n#\t\t\t\t\\begin{document":2951,"}#n#\t\t\t\t\\setlength{\\oddsidemargin}{-69pt":2952,"\\documentclass[12pt]{minimal}#n#\t\t\t\t\\usepackage{amsmath":2953,"}#n#\t\t\t\t\\usepackage{mathrsfs}#n#\t\t\t\t\\usepackage{upgreek":2954,"▁#n#\t\t\t\t\\usepackage{amsbsy}#n#\t\t\t\t\\usepackage{mathrsfs}#n#\t\t\t\t\\usepackage{upgreek":2955,"}#n#\t\t\t\t\\setlength{\\oddsidemargin}{-69pt}#n#\t\t\t\t\\begin{document":2956,"\\documentclass[12pt]{minimal}#n#\t\t\t\t\\usepackage{amsmath}#n#\t\t\t\t\\usepackage{wasysym}":2957,"▁#n#\t\t\t\t\\usepackage{amsbsy}#n#\t\t\t\t\\usepackage{mathrsfs}#n#\t\t\t\t\\usepackage{upgreek}#n#\t\t\t\t\\setlength{\\oddsidemargin}{-69pt}#n#\t\t\t\t\\begin{document":2958,"sta":2959,"Article":2960,"▁colspan=\"1\">p":2961,"gif\"/></alternatives></inline-formula":2962,"2-":2963,"</td></tr><tr><td>P":2964,"</td><td>+":2965,"ateg":2966,"chem":2967,"▁color:#":2968,"▁align=\"left\">7":2969,"elf":2970,"4.3":2971,"_Article":2972,"▁colspan=\"7\"":2973,"</td><td>F":2974,"</td><td>0</td><td>0":2975,"ili":2976,"ptom":2977,"_Article_IEq":2978,"▁colspan=\"1\">0.4":2979,"rimary":2980,"4.7":2981,"ences":2982,"▁test":2983,"</td><td>1.0":2984,"arge":2985,"▁(year":2986,"5.6":2987,"8.5":2988,"\\end{document}</tex-math><mml:math":2989,"ia</td><td":2990,"emog":2991,"1.9":2992,"fe":2993,"m</td><td":2994,"19</td><td":2995,"▁10<sup>":2996,"▁colspan=\"1\">16":2997,"ann":2998,"▁different":2999,"></mml:math><inline-graphic":3000,")</td><td>0.":3001,"Number":3002,"</italic></td><td>":3003,"in</td><td":3004,".</td></tr><tr><td":3005,"▁30":3006,"</italic></td></tr><tr><td":3007,"▁over":3008,"3.2":3009,"3.4":3010,"3.9":3011,"</td></tr><tr><td>C":3012,"▁\"":3013,"▁ag":3014,"apy":3015,"ational":3016,"5.8":3017,"NS":3018,"=\"5\"":3019,"</italic><sub>":3020,"▁span=\"1\"/><thead":3021,"4.4":3022,"TA":3023,"6.5":3024,"each":3025,"▁ta":3026,"4.8":3027,"▁(c":3028,"yr":3029,"▁rules=\"groups\"><thead":3030,"▁J":3031,"ymptom":3032,"come":3033,"▁anti":3034,"▁colspan=\"1\">NA</td><td":3035,");":3036,"▁align=\"left\">0</td><td":3037,"verage":3038,"ident":3039,"sup><bold>":3040,"D9":3041,"▁colspan=\"1\">+":3042,"></mml:mrow><mml:m":3043,"▁html><html><body><h4>D":3044,"▁stud":3045,"-5":3046,"4.6":3047,"reat":3048,"▁(%)</td><td>":3049,"▁colspan=\"1\">[<xref":3050,"▁ref-type=\"ref":3051,"7<hr/></td><td":3052,"▁valign=\"bottom\">S":3053,"▁#000000;\"":3054,"20</td><td":3055,"icro":3056,"ely":3057,"▁ref-type=\"ref\">":3058,"sy":3059,"></h4><head><style>":3060,"▁html><html><body><h4></h4><head><style>":3061,"ole":3062,"▁align=\"center\">0</td><td":3063,"▁all":3064,"align:":3065,"ient":3066,"▁abo":3067,"▁other":3068,"▁#n#\t\t\t\t\\usepackage{amsbsy}#n#\t\t\t\t\\usepackage{mathrsfs}#n#\t\t\t\t\\usepackage{upgreek}#n#\t\t\t\t\\setlength{\\oddsidemargin}{-69pt}#n#\t\t\t\t\\begin{document}$$":3069,"▁rules=\"groups\"><col":3070,"▁align=\"center\">6":3071,"5.4":3072,"–3":3073,"▁#000000\"><th":3074,"▁align=\"left\">8":3075,"▁rid=\"R":3076,"▁used":3077,"▁colspan=\"1\">&gt;":3078,"</td><td>L":3079,"sults":3080,"cep":3081,"▁valign=\"top\"><tr><th":3082,"kg":3083,"8.6":3084,"bl":3085,"oid":3086,"EM":3087,"▁border=\"1\"><colgroup><col":3088,"a,":3089,"</bold>#n#</td><td>#n#<bold>":3090,"▁colspan=\"1\">Yes</td><td":3091,"GCT":3092,"▁&amp;":3093,"▁align=\"left\">I":3094,"1)":3095,"iss":3096,"</td><td>H":3097,"ental":3098,"requ":3099,"(2":3100,"5.3":3101,"ank":3102,"▁valign=\"bottom\">C":3103,"8.8":3104,"rin":3105,"▁sc":3106,"F</td><td":3107,"eral":3108,"▁valign=\"bottom\">4":3109,"▁associ":3110,"chool":3111,"dition":3112,"ach":3113,"**</td><td":3114,"</bold>#n#</th><th":3115,"</td><td>D":3116,"▁Ch":3117,"▁align=\"left\">1</td><td":3118,"bin":3119,"5.9":3120,"6.4":3121,"▁colspan=\"1\">8</td><td":3122,"4.2":3123,"7.8":3124,"▁type":3125,"eu":3126,"▁(M":3127,"4.9":3128,"></th></tr><tr><th":3129,"</bold><hr/></th><th":3130,"ation,":3131,"ime":3132,"▁diagn":3133,"uld":3134,"onic":3135,"ton":3136,"6.8":3137,"▁colspan=\"1\">−</td><td":3138,"▁colspan=\"1\">10</td><td":3139,"01":3140,"-i":3141,"ating":3142,"Ad":3143,"ame":3144,"▁colspan=\"1\">11":3145,"▁valign=\"bottom\">5":3146,"ov":3147,"▁align=\"center\">N":3148,"view":3149,"ute":3150,"▁align=\"char\">4":3151,"▁(years":3152,"</sup><hr/></td><td":3153,"▁align=\"left\">O":3154,"justed":3155,"</xref>,<xref":3156,"</td></tr><tr><td>M":3157,"5.2":3158,"▁valign=\"bottom\">P":3159,"6.6":3160,"▁colspan=\"1\">No</td><td":3161,"▁align=\"left\"><":3162,"▁content-type=\"":3163,"</td><td>&lt;":3164,"6.3":3165,"<sup>a</sup></td><td":3166,"▁(C":3167,"econd":3168,"▁rati":3169,"ified":3170,"inding":3171,"BP":3172,"plic":3173,"DD":3174,"▁colspan=\"1\">18":3175,"▁colspan=\"1\">1,":3176,"8.9":3177,"_00":3178,"int":3179,"▁colspan=\"1\">—</td><td":3180,"▁colspan=\"1\">17":3181,"ulti":3182,"▁incl":3183,"cription":3184,"▁valign=\"bottom\">(":3185,"ology":3186,"al</td><td":3187,"normal":3188,"6.9":3189,"--":3190,"8.3":3191,"s</h4><head><style>":3192,"▁(±":3193,"1.1":3194,"7.6":3195,"</td><td>.":3196,"his":3197,"▁than":3198,"c.":3199,"ession":3200,"▁9.":3201,"▁colspan=\"1\">7</td><td":3202,"NP":3203,"top:solid":3204,"</bold></td><td>":3205,"ane":3206,"dro":3207,"ouse":3208,"CCA":3209,"urrent":3210,"ays":3211,"ities":3212,"_0":3213,"-bib":3214,"uman":3215,"ticipants":3216,"</italic></th><th":3217,"7.7":3218,"opulation":3219,"8.7":3220,"▁0.001":3221,"▁mea":3222,"try":3223,"MP":3224,")</td><td>1":3225,"▁1</td><td":3226,"▁follow":3227,"</th></tr><tr><th>":3228,"mono":3229,"▁during":3230,"osph":3231,"typ":3232,"▁clinical":3233,")</th></tr></thead><tbody><tr><td":3234,"▁colspan=\"1\"><bold><italic>":3235,"very":3236,"▁system":3237,"▁(P":3238,"bet":3239,"-P":3240,"▁rate":3241,"6.2":3242,"1F":3243,"▁function":3244,"▁Un":3245,"7.4":3246,"▁align=\"center\"/><td":3247,"▁di":3248,"▁up":3249,"SC":3250,"&lt;0.001":3251,"8.4":3252,"▁bi":3253,"▁have":3254,"▁ther":3255,"ales":3256,"monospace":3257,"▁colspan=\"1\">Y":3258,"▁Pro":3259,"▁colspan=\"1\">−0.":3260,"▁valign=\"bottom\">M":3261,"AL":3262,"usion":3263,"▁align=\"center\">1</td><td":3264,"▁/":3265,"luc":3266,"RI":3267,"B</td><td":3268,"▁em":3269,"▁style=\"border-top:solid":3270,"▁dec":3271,"▁more":3272,")</td><td>1.":3273,"</th><th>#n#<bold>":3274,"7.9":3275,"</td></tr><tr><td/><td":3276,"▁align=\"center\">7":3277,"▁incre":3278,"▁meth":3279,"▁</th><th":3280,"7.3":3281,"▁vs":3282,"er</td><td":3283,"000</td><td":3284,"▁st":3285,"25</td><td":3286,"▁low":3287,"ysical":3288,"DL":3289,"▁man":3290,"▁align=\"left\">9":3291,"estion":3292,"velop":3293,"amin":3294,"redic":3295,"gh":3296,"emographic":3297,"%<hr/></td><td":3298,"▁it":3299,"▁colspan=\"1\">(<xref":3300,"nis":3301,"▁valign=\"bottom\">-<hr/></td><td":3302,"9.5":3303,"ocial":3304,"other":3305,"8.2":3306,"-M":3307,"▁colspan=\"1\">30":3308,"ory":3309,"▁groups":3310,"▁align=\"left\">10":3311,"▁%)</td><td>":3312,"az":3313,"andard":3314,"▁(p":3315,"2.1":3316,"▁mem":3317,"▁des":3318,"\"/":3319,"▁colspan=\"1\">m":3320,"ron":3321,"ound":3322,"/m":3323,"▁cells":3324,"▁inform":3325,"known":3326,"</italic>#n#<":3327,"ision":3328,"</bold>#n#</th><th>#n#<bold>":3329,"▁align=\"char\">5":3330,"erg":3331,")<xref":3332,"str":3333,"ificant":3334,"ported":3335,"BF":3336,"ness":3337,"bottom:solid":3338,"IC":3339,"atient":3340,"50\"":3341,"ison":3342,"▁OR":3343,"▁po":3344,"▁dep":3345,"2–":3346,"now":3347,"</td><td>B":3348,"ru":3349,"▁colspan=\"1\">Pro":3350,"SS":3351,"sa":3352,"ositive":3353,"▁valign=\"bottom\">N":3354,"▁educ":3355,"RT":3356,"none":3357,"></td></tr></tbody></table></body></html>\n":3358,"ind":3359,"▁colspan=\"1\">No":3360,"ale</td><td":3361,"hort":3362,"itis":3363,"▁weight":3364,"▁colspan=\"1\">Age":3365,"▁blood":3366,"ate</td><td":3367,"na":3368,"▁0.000":3369,"▁10<sup>−":3370,"kin":3371,"FN":3372,"▁align=\"center\">8":3373,"irst":3374,"▁colspan=\"1\">Ch":3375,"/></tr><tr":3376,"</xref></":3377,"ID":3378,"<sub>3":3379,"etic":3380,"</sup></th><th":3381,"▁(%)</th><th":3382,"cer":3383,"order":3384,"▁align=\"left\">-":3385,"▁expression":3386,"rain":3387,"earch":3388,"</bold></td><td><bold>":3389,"#n#</th><th":3390,"Inter":3391,"9.4":3392,"eli":3393,"SP":3394,"mis":3395,"▁0.5":3396,"CO":3397,"cing":3398,"▁day":3399,"▁colspan=\"1\">Total":3400,"ock":3401,"▁rowspan=\"4\">":3402,"ype":3403,"ingle":3404,"</bold></th></tr></thead><tbody><tr><td":3405,"eng":3406,"3–":3407,"GAA":3408,"ry":3409,"▁(mm":3410,"ocy":3411,"efore":3412,"-A":3413,"BC":3414,"haracteristics":3415,"ucle":3416,"lm":3417,"rade":3418,"</td></tr><tr><td>#n#<italic>":3419,"</td><td>No":3420,"med":3421,"vas":3422,"▁class":3423,"hav":3424,"9.6":3425,"etch":3426,"▁15":3427,"</bold></th></tr></thead><tbody":3428,"ved":3429,"ication":3430,"QR":3431,"▁50":3432,"ariate":3433,"▁colspan=\"1\">Un":3434,"▁(s":3435,"3.1":3436,"eight":3437,"alse":3438,"▁align=\"char\">0.00":3439,"IN":3440,"L-":3441,"px":3442,"▁(d":3443,"idual":3444,"<sup>a</sup>#n#":3445,"7.2":3446,"▁Y":3447,"ee":3448,"tudy":3449,"▁0.2":3450,"▁colspan=\"1\">−0.0":3451,"▁do":3452,"Variable":3453,"9.7":3454,"schem":3455,"ses":3456,"▁intervention":3457,"▁2</td><td":3458,"ross":3459,"Cl":3460,"sup><italic>":3461,"RNA":3462,"▁factor":3463,"*</td></tr><tr><td":3464,"/A</td><td":3465,"</th><th>S":3466,"9.8":3467,"▁their":3468,"<sup>*":3469,"▁size":3470,"mol/L":3471,"▁stretch":3472,"▁my":3473,"E-":3474,"▁prov":3475,"oph":3476,"▁colspan=\"1\">9</td><td":3477,"▁path":3478,"▁mg":3479,"ived":3480,"8\">":3481,"</td><td>15":3482,"cular":3483,"path":3484,"9\">":3485,"><mml:mn>":3486,"ability":3487,"▁thin;border-":3488,"ish":3489,"▁(S":3490,"</bold>#n#</td></tr><tr><td":3491,"reg":3492,"spacing":3493,"H</td><td":3494,"one</td><td":3495,"▁colspan=\"1\">19":3496,"rad":3497,"</ext-link></td><td":3498,"▁cellpadding":3499,"GAT":3500,"▁align=\"left\">2.":3501,"land":3502,"▁about":3503,"ode":3504,"pg":3505,"trib":3506,"sub><italic>":3507,"se</td><td":3508,"</th><th>P":3509,"-T":3510,"▁rowspan=\"1\">#n#<bold>":3511,"–4":3512,"BL":3513,"10\"":3514,"ES":3515,"wo":3516,"ult":3517,"<hr/></th><th":3518,"▁cellspacing":3519,"▁colspan=\"1\">Ref":3520,"</mml:mn><mml:mo>":3521,"▁def":3522,"(0.":3523,"▁valign=\"bottom\">6":3524,"▁change":3525,"▁valign=\"bottom\">−":3526,"x</td><td":3527,"ould":3528,"sup><xref":3529,"▁valign=\"bottom\">A":3530,"▁rowspan=\"4\"":3531,"▁j":3532,"▁exper":3533,"▁school":3534,"▁bre":3535,"ds":3536,"olec":3537,"30</td><td":3538,"Com":3539,"▁valign=\"bottom\">1<hr/></td><td":3540,"rans":3541,"▁symptom":3542,"▁coun":3543,"▁An":3544,"hold":3545,"1</td><td>0.":3546,"</xref>#n#</td></tr><tr><td":3547,"▁valign=\"bottom\">0<hr/></td><td":3548,"ise":3549,"nic":3550,"▁The":3551,"gen\"":3552,"▁ext-link-type=\"gen\"":3553,"y=\"":3554,"▁none":3555,"▁stretchy=\"":3556,"n.":3557,"</td><td>Yes":3558,"▁align=\"left\">0.8":3559,"parison":3560,"<sup>+":3561,"▁mm":3562,"emale</td><td":3563,"2/":3564,"oles":3565,"Reference":3566,"PD":3567,"▁align=\"left\">W":3568,"</mml:mn></mml:mrow":3569,"ature":3570,"9.3":3571,"ae":3572,"action":3573,"mission":3574,"eath":3575,"▁comple":3576,"-4":3577,"bd":3578,"</bold></td></tr><tr><td>":3579,"</td><td>G":3580,"–5":3581,"-S":3582,"▁CD":3583,"4.1":3584,"alc":3585,"▁align=\"center\">9":3586,"/d":3587,"gg":3588,"▁colspan=\"1\">An":3589,"cus":3590,"/1.0":3591,"9.9":3592,"9.2":3593,"way":3594,"as/":3595,"hip":3596,"-up":3597,"</named-content":3598,"umm":3599,"▁align=\"char\">6":3600,"▁colspan=\"1\">25":3601,"0</td></tr><tr><td":3602,"of":3603,"▁years</td><td":3604,"▁total":3605,"></td></tr><tr":3606,"pi":3607,"***</td><td":3608,"o.org/":3609,"▁colspan=\"6\">":3610,"</td><td>14":3611,"▁(11.":3612,"/><td/><td/></tr><tr><td":3613,"▁family":3614,"=\"http://www.nis":3615,"ali/1.0":3616,"ali=\"http://www.nis":3617,"▁xmlns:ali=\"http://www.nis":3618,"schemas/":3619,"o.org/schemas/":3620,"▁xmlns:ali=\"http://www.niso.org/schemas/":3621,"▁xmlns:ali=\"http://www.niso.org/schemas/ali/1.0":3622,"><tbody":3623,"atic":3624,"7.1":3625,"RA":3626,"</td></tr><tr><td>H":3627,"▁18":3628,"6–":3629,"over":3630,"▁colspan=\"4\"><hr/></td></tr><tr><td":3631,"▁colspan=\"1\">12</td><td":3632,"▁rules=\"groups\"><thead><tr><td":3633,"</xref>;":3634,"CAT":3635,"esis":3636,"▁prog":3637,"</p></list-item><list-item><p>":3638,"▁align=\"left\">[<xref":3639,"off":3640,"p</td><td":3641,").":3642,"ity</td><td":3643,"ric":3644,"▁valign=\"bottom\">10":3645,"EF":3646,"p.":3647,"tes":3648,"▁ca":3649,"man":3650,"▁es":3651,"requency":3652,"</bold><hr/></td></tr><tr><td":3653,"00</td></tr><tr><td":3654,"0.0</td><td":3655,"4–":3656,"uro":3657,"▁“":3658,"<sup>−1":3659,"▁II":3660,"erson":3661,"▁ser":3662,"▁0.3":3663,"</td><td>12":3664,"▁under":3665,"false":3666,"ene":3667,"▁ratio":3668,"▁html><html><body><h4>R":3669,"></mml:mrow><mml:mrow><mml:m":3670,"<sup>d":3671,"▁align=\"left\">0.9":3672,"▁variable":3673,"loy":3674,"a</italic>":3675,"3-":3676,"#n#</td></tr><tr":3677,"atients":3678,"RP":3679,"arri":3680,"▁list":3681,"ran":3682,"▁can":3683,"</td><td>16":3684,"▁align=\"left\">0.7":3685,"▁this":3686,"▁(μ":3687,"LA":3688,"▁infection":3689,"▁participants":3690,"inline-formula><mml:math":3691,"</th></tr></thead><tbody":3692,")</td><td>2":3693,"GTT":3694,"moking":3695,"21</td><td":3696,"▁assess":3697,"ie":3698,"text-":3699,")</h4><head><style>":3700,"RS":3701,"viv":3702,"▁sex":3703,"betes":3704,"ized":3705,"ED":3706,"5.1":3707,"oder":3708,"▁Sta":3709,"▁<italic>p</italic>":3710,"▁valu":3711,"rh":3712,"(3":3713,"></mml:math></inline-formula":3714,"acy":3715,"24</td><td":3716,"▁<italic>et":3717,"text-align:":3718,"1\"><sup>":3719,"</td><td>I":3720,"mp":3721,"</td></tr><tr><td>A":3722,"MA":3723,"-bib-00":3724,"40</td><td":3725,"jpg":3726,"centr":3727,"oth":3728,"▁index":3729,"▁serv":3730,"▁using":3731,"▁each":3732,"mit":3733,"tures":3734,"▁studies":3735,"0,":3736,"▁8.":3737,"▁mg/":3738,"E−":3739,"▁Yes":3740,"▁pain":3741,"ividual":3742,"nlm":3743,"Gender":3744,"-in":3745,"▁colspan=\"8\"":3746,"▁align=\"char\">0.8":3747,"oun":3748,"core":3749,"6.1":3750,"▁(ref":3751,"▁(n=":3752,"</td></tr><tr><td>T":3753,"▁one":3754,"▁colspan=\"7\">":3755,"ese":3756,"iod":3757,"sus":3758,"▁loc":3759,"ible":3760,"false\">":3761,"▁≤":3762,"▁(0.00":3763,"cle":3764,"range":3765,"plement":3766,"▁stretchy=\"false\">":3767,"E</td><td":3768,"$$\\end{document}</tex-math><mml:math":3769,"▁100":3770,"ameter":3771,"▁results":3772,"pt;":3773,"▁align=\"char\"/><td":3774,"irth":3775,"▁information":3776,"</mml:mi><mml:mi>":3777,"erc":3778,"▁colspan=\"1\">.0":3779,"b</td><td":3780,"O:":3781,"▁factors":3782,"▁align=\"left\">12":3783,"ulated":3784,"</td></tr><tr><td>D":3785,"22</td><td":3786,"▁rec":3787,"PA":3788,"gan":3789,"▁weeks":3790,"V</td><td":3791,"ultiv":3792,"us</td><td":3793,"]</td></tr><tr><td":3794,"NF":3795,"▁html><html><body><h4>M":3796,"▁rid=\"ref":3797,"▁colspan=\"5\"><hr/></td></tr><tr><td":3798,"▁align=\"center\">(":3799,"oly":3800,"▁median":3801,"ynth":3802,"▁%)</td><td":3803,"</td><td>[<xref":3804,"▁align=\"char\">0.7":3805,"utr":3806,"▁diagnosis":3807,"▁end":3808,"–0.":3809,"<break/":3810,"OS":3811,"▁colspan=\"1\"><bold>S":3812,"ok":3813,"▁colspan=\"1\">Mean":3814,"la":3815,"▁tumor":3816,"▁align=\"center\">0.8":3817,"–1.0":3818,"▁sequ":3819,"alen":3820,"rameter":3821,"ivers":3822,"yper":3823,"▁his":3824,"<sup>b</sup></td><td":3825,"▁commun":3826,"50</td><td":3827,"▁children":3828,"▁align=\"char\">7":3829,"▁align=\"left\"><p>":3830,"▁40":3831,"▁thin;border-bottom:solid":3832,"CAA":3833,"▁(A":3834,"nal":3835,"°C":3836,"▁women":3837,"ord":3838,"tra":3839,"▁method":3840,"tension":3841,"▁valign=\"bottom\">7":3842,"vol":3843,"Par":3844,"ps":3845,"▁drug":3846,"▁population":3847,"▁only":3848,"ase</td><td":3849,"NM":3850,"▁produc":3851,"><mml:msub":3852,"▁hospital":3853,"▁html><html><body><h4>The":3854,"▁but":3855,"▁cellpadding=\"5\"":3856,"-H":3857,"▁associated":3858,"val":3859,"▁colspan=\"1\">–</td></tr><tr><td":3860,"-D":3861,"▁colspan=\"1\">11</td><td":3862,"23</td><td":3863,"5)":3864,"</th><th>#n#<italic>":3865,"▁align=\"left\">#n#<":3866,"Con":3867,"pecific":3868,"▁reduc":3869,"</td><td>E":3870,"▁colspan=\"1\">24":3871,"▁(0)</td><td":3872,"▁les":3873,"</td><td>NA":3874,"▁align=\"center\">0.00":3875,"▁parameter":3876,"▁0.4":3877,"ening":3878,"▁significant":3879,"</td></tr><tr><td>B":3880,"ential":3881,"aliz":3882,"con":3883,"ffic":3884,"▁condition":3885,"▁0px":3886,"</italic>#n#</th><th":3887,"</td><td>13":3888,"▁surg":3889,"ants":3890,"▁align=\"left\">0.00":3891,"▁align=\"center\">2.":3892,"8.1":3893,"equ":3894,"▁valign=\"bottom\">T":3895,"acea":3896,"</td><td>−0.":3897,"N</td><td":3898,"▁Com":3899,"ification":3900,"▁(12.":3901,"▁disorder":3902,"box":3903,")</td><td>0.0":3904,"▁develop":3905,"</td><td>17":3906,"▁know":3907,"▁0.8":3908,"</italic></bold></td><td":3909,"</td><td>18":3910,"▁Ex":3911,"0.0)</td><td":3912,"</sup></td></tr><tr><td>":3913,"coh":3914,"▁set":3915,"▁vi":3916,"▁align=\"center\">10":3917,"pid":3918,"▁who":3919,"▁colspan=\"1\">&lt;0.001</td></tr><tr><td":3920,"rol":3921,"▁ident":3922,"▁positive":3923,"CH":3924,"▁colspan=\"1\">0</td></tr><tr><td":3925,"o>":3926,"ors":3927,"▁align=\"center\">0.7":3928,"▁align=\"char\">0.9":3929,"ments":3930,"▁valign=\"bottom\">2.":3931,"/s":3932,"▁colspan=\"1\">0.000":3933,"▁align=\"center\">0.9":3934,"▁mathvariant=\"normal":3935,"▁align=\"left\">0.5":3936,"/><td/><td/></tr><tr><td>":3937,"linic":3938,"▁0.7":3939,"</td></tr><tr><td>L":3940,"▁valign=\"bottom\">H":3941,"32</td><td":3942,"▁support":3943,"tig":3944,"yes":3945,"60</td><td":3946,"PR":3947,"S.":3948,"</td><td>0.5":3949,"▁(H":3950,"▁prac":3951,"CCT":3952,"><p":3953,"rev":3954,"▁0.9":3955,"130":3956,"28</td><td":3957,"·0":3958,"▁mathvariant=\"normal\">":3959,"▁align=\"char\">0.5":3960,"olum":3961,"uri":3962,"</td><td>5.":3963,"chr":3964,"2)":3965,"amples":3966,"▁rules=\"groups\"><thead><tr><th/><th>":3967,"▁Q":3968,"trans":3969,"/><td/><td/><td":3970,"-10":3971,"▁align=\"left\">0.6":3972,"yto":3973,".g":3974,"-li":3975,"✓</td><td":3976,"–3.":3977,"▁14":3978,"MS":3979,"sum":3980,"eno":3981,"▁align=\"char\">0.6":3982,"▁.":3983,"▁(13.":3984,"itiv":3985,"▁rowspan=\"1\"><hr/></td></tr><tr><td":3986,"\"><mml:mrow><mml:m":3987,"PS":3988,"emia":3989,"▁align=\"char\">8":3990,"▁24":3991,"elf-":3992,"endent":3993,"▁stage":3994,"▁16":3995,"▁reported":3996,"▁behav":3997,"▁colspan=\"1\">50":3998,"▁vis":3999,"A,":4000,"3/":4001,"-B":4002,"ing,":4003,"hib":4004,"y,":4005,"▁ver":4006,"ties":4007,"/><td/><td/><td/><td/><td/><td/><td/><td":4008,"26</td><td":4009,"ept":4010,"▁(T":4011,"CL":4012,"aw":4013,"related":4014,"▁60":4015,"▁align=\"char\">2.":4016,"▁valign=\"bottom\">8":4017,"▁valign=\"bottom\">F":4018,"</td><td>-</td><td>-":4019,"▁metabo":4020,"#n#<p>":4021,"pecies":4022,",000":4023,"sych":4024,"▁colspan=\"1\">15</td><td":4025,"ull":4026,"</td><td>1</td><td>1":4027,"omain":4028,"▁cases":4029,"AB":4030,"Control":4031,"27</td><td":4032,"▁conf":4033,"oss":4034,"ercent":4035,"eed":4036,"▁gene":4037,"econdary":4038,"reatment":4039,"err":4040,"33</td><td":4041,"<italic>n</italic>":4042,"</td><td>0.8":4043,"▁(14.":4044,"lam":4045,"</td></tr><tr><td>R":4046,"▁colspan=\"1\">Ex":4047,"s)":4048,"hronic":4049,"29</td><td":4050,"▁colspan=\"1\">20</td><td":4051,"</td><td>0.9":4052,"9.1":4053,"</td><td>30":4054,"eart":4055,"▁25":4056,"aling":4057,"▁III":4058,"▁#":4059,"hsa":4060,"▁align=\"left\">20":4061,"ceptor":4062,"imum":4063,"▁without":4064,"agement":4065,"▁colspan=\"1\">J":4066,"</p></td><td><p>":4067,"▁valign=\"top\"><bold>":4068,"▁0.6":4069,"35</td><td":4070,"ally":4071,"</td></tr><tr><td>F":4072,"EC":4073,"lig":4074,"EN":4075,"atch":4076,"▁colspan=\"1\">#n#<xref":4077,"▁region":4078,"▁char=\"(\">":4079,"▁process":4080,"Group":4081,"tile":4082,"vir":4083,"eria":4084,"▁colspan=\"1\">200":4085,"bserv":4086,"++":4087,"▁av":4088,"iel":4089,"▁response":4090,"</th><th>M":4091,"ummary":4092,"lor":4093,"ule":4094,"▁colspan=\"1\">Com":4095,"g/dL":4096,"▁colspan=\"1\">11.":4097,"ublic":4098,"−0.":4099,"▁html><html><body><h4>A":4100,"ardi":4101,"ET":4102,"▁3</td><td":4103,"▁align=\"justify\">":4104,"▁train":4105,"ev":4106,"tics":4107,"</sup>,":4108,"</p>#n#<p>":4109,"Ph":4110,"▁(L":4111,"▁area":4112,"-6":4113,"andom":4114,"▁0.001</td></tr><tr><td":4115,"sf":4116,"ward":4117,"ortality":4118,"▁colspan=\"1\">100</td><td":4119,"ced":4120,"▁align=\"center\">0.6":4121,"▁colspan=\"1\">40":4122,"▁(50":4123,"ultiple":4124,"▁Health":4125,"ource":4126,"▁(0.8":4127,"/><td/><td/><td/></tr><tr><td":4128,"eric":4129,"▁align=\"center\">0.5":4130,"▁%</td><td":4131,"▁colspan=\"3\"><hr/></td></tr><tr><td":4132,"31</td><td":4133,"▁valign=\"bottom\">0.8":4134,"▁within":4135,"▁baseline":4136,"▁style=\"border:":4137,"▁(16.":4138,"▁form":4139,"atal":4140,"MD":4141,"au":4142,"Hg":4143,"ine</td><td":4144,"▁non-":4145,"▁colspan=\"1\">&lt;0.001</td><td":4146,"▁(0.9":4147,"utation":4148,"effic":4149,"34</td><td":4150,"▁ob":4151,"▁colspan=\"1\">16</td><td":4152,"ensity":4153,"ces":4154,"IP":4155,"ai":4156,"▁align=\"center\">S":4157,"▁Con":4158,"▁sit":4159,"><mml:mi":4160,"ower":4161,"▁colspan=\"1\">14</td><td":4162,"▁colspan=\"1\">2.0":4163,"/><td/><td/><td>":4164,"gif\"/></alternatives></inline-formula>":4165,"<sup>3":4166,"pective":4167,"OC":4168,"></list":4169,"▁list-type=\"":4170,"s</td></tr><tr><td":4171,"▁inj":4172,"▁op":4173,"▁colspan=\"1\">#n#</td></tr><tr><td":4174,"▁align=\"left\">13":4175,"</td><td>100":4176,"abel":4177,"ina":4178,"▁perform":4179,"▁before":4180,"/><th>":4181,"36</td><td":4182,"▁colspan=\"1\">13</td><td":4183,"▁valign=\"bottom\">R":4184,"▁regression":4185,"ning":4186,"</underline":4187,"mml:math":4188,"*\"":4189,"▁colspan=\"1\"><ext-link":4190,"ude":4191,"▁align=\"left\">V":4192,"▁effect":4193,"</td><td>0.7":4194,"ody":4195,"▁among":4196,"▁(15.":4197,"istance":4198,"truc":4199,"▁(B":4200,"▁html><html><body><h4>Com":4201,"-R":4202,"cohol":4203,"▁colspan=\"1\">&lt;.00":4204,"▁199":4205,"▁align=\"left\">In":4206,"uded":4207,"</p></td><td>":4208,"▁valign=\"bottom\">D":4209,"–6":4210,"▁align=\"left\">3.":4211,"▁colspan=\"1\">28":4212,"▁part":4213,"▁(0.7":4214,"</mml:mtext":4215,"▁align=\"left\">2</td><td":4216,"▁predic":4217,"ito":4218,"sc>":4219,"▁span=\"1\"><col":4220,"(4":4221,"HR":4222,"▁align=\"char\">9":4223,"</td><td>19":4224,"▁therapy":4225,"IT":4226,"▁(R":4227,"▁align=\"left\">U":4228,"▁Th":4229,"rowth":4230,"ected":4231,"▁Other":4232,"▁(IQR":4233,"▁genes":4234,"38</td><td":4235,"vement":4236,"ices":4237,"</td></tr></thead><tbody><tr><td":4238,"sup></td><td":4239,"▁colspan=\"1\">26":4240,"mok":4241,"▁colspan=\"1\">12.":4242,"-2.":4243,"AG":4244,"▁align=\"left\">14":4245,"45</td><td":4246,"</p></list-item></list":4247,"tribution":4248,"▁html><html><body><h4>B":4249,"▁(200":4250,"PV":4251,"term":4252,"▁u":4253,"erative":4254,"▁prof":4255,"▁valign=\"bottom\">0.7":4256,"jects":4257,"▁sample":4258,"LC":4259,"▁sever":4260,"outh":4261,"tt":4262,"▁ab":4263,"ism":4264,"▁colspan=\"1\">27":4265,"tissu":4266,"▁rules=\"groups\"><tbody":4267,"▁measu":4268,"▁19":4269,"▁need":4270,"▁range":4271,"<sup>a</sup></td><td>":4272,"ruit":4273,"2\"><sup>":4274,"▁valign=\"top\"><tr":4275,"▁Z":4276,"UC":4277,"3)":4278,"▁Ad":4279,"width":4280,")</td><td>3":4281,"ner":4282,"▁Dis":4283,"</italic>#n#</td><td>#n#<italic>":4284,"▁(F":4285,"▁align=\"left\">11":4286,"></bold":4287,"▁(b":4288,"▁align=\"center\">2</td><td":4289,"▁colspan=\"1\"><italic>P":4290,"><italic>p</italic>":4291,"▁valign=\"bottom\">12":4292,"▁Ind":4293,"▁align=\"center\">P":4294,"▁provid":4295,"▁rid=\"j":4296,"IS":4297,"</bold>#n#<":4298,"2</td></tr><tr><td>":4299,"▁impro":4300,"▁rid=\"tf":4301,"</italic>.":4302,"▁(in":4303,"</td><td>11":4304,"pati":4305,"221":4306,"05":4307,"▁CO":4308,"aj":4309,"urg":4310,"ease":4311,"hydro":4312,"pation":4313,"terol":4314,"g/ml":4315,"8–":4316,"▁colspan=\"9\"":4317,"eop":4318,"▁valign=\"bottom\">0.9":4319,"Al":4320,"pared":4321,"▁valign=\"bottom\">0.00":4322,"▁align=\"char\">&lt;":4323,"▁Med":4324,"-0.":4325,"irc":4326,"▁receptor":4327,"▁High":4328,"37</td><td":4329,"uri\"":4330,"eck":4331,"▁ext-link-type=\"uri\"":4332,"comes":4333,"▁mon":4334,"MT":4335,"-based":4336,"<sup>a</sup>#n#</td><td":4337,"39</td><td":4338,"▁(k":4339,"an</td><td":4340,"</td><td>−0.0":4341,"▁based":4342,"sp":4343,"ni":4344,"ethyl":4345,"orb":4346,"Over":4347,"<sub>3</sub>":4348,"▁id=\"nlm":4349,"width:":4350,"</underline>":4351,"▁colspan=\"1\">Ph":4352,"▁id=\"nlm-math":4353,"CS":4354,"▁char=\"–":4355,"▁(0.5":4356,"▁colspan=\"1\">1</td></tr><tr><td":4357,"▁rid=\"tbl":4358,"▁(D":4359,"eak":4360,"▁su":4361,"▁had":4362,"▁CT":4363,"hibi":4364,"▁valign=\"bottom\">B":4365,"xy":4366,"CG":4367,"▁first":4368,"▁align=\"left\">#n#<inline-formula":4369,"<sup>−1</sup>":4370,"1.00":4371,"oot":4372,"▁colspan=\"1\">Ad":4373,"▁education":4374,"lev":4375,"ecre":4376,"▁1,":4377,"▁your":4378,"42</td><td":4379,"▁question":4380,"▁levels":4381,"▁rid=\"b":4382,"▁prev":4383,"44</td><td":4384,"ND":4385,"▁proble":4386,"resent":4387,"▁valign=\"bottom\">L":4388,"art":4389,")<sup>":4390,"▁style=\"border:none":4391,"▁0.001</td><td":4392,"urs":4393,"ateral":4394,"▁char=\"–\"":4395,"▁which":4396,"take":4397,"▁colspan=\"1\">1.00</td><td":4398,"▁two":4399,"ependent":4400,"gnanc":4401,"lection":4402,"▁colspan=\"1\"/></tr></tbody></table></body></html>\n":4403,"</italic>#n#<sub>":4404,"▁rules=\"groups\"><colgroup":4405,"▁tissu":4406,"</td><td>1.00":4407,"s.</h4><head><style>":4408,"vival":4409,"▁0.001</td></tr><tr><td>":4410,"▁0.05":4411,"ength":4412,"▁if":4413,"cy":4414,"6E":4415,"▁Mean":4416,"FA":4417,"▁(17.":4418,"weight":4419,"▁valign=\"bottom\">9":4420,"eated":4421,"▁present":4422,"▁align=\"left\">15":4423,"▁(18.":4424,"▁(range":4425,"48</td><td":4426,"jpg\"/":4427,"▁charoff":4428,"▁charoff=\"":4429,"ixed":4430,"▁(f":4431,"g/mL":4432,"rior":4433,"ization":4434,"</td><td>0.6":4435,"bio":4436,"char":4437,"uding":4438,"4</td><td>":4439,"En":4440,"▁trial":4441,"▁(G":4442,"mall":4443,"IL":4444,"▁align=\"center\"/></colgroup><thead":4445,"be":4446,"</td><td/><td>":4447,"▁length":4448,"▁align=\"left\">-</td><td":4449,"H<sub>":4450,"▁tem":4451,"lood":4452,"▁11":4453,"uster":4454,"41</td><td":4455,"NO":4456,"enz":4457,"▁dy":4458,"7–":4459,"▁tes":4460,"lucose":4461,"▁(cm":4462,"CP":4463,"n\">":4464,"-<italic>":4465,"</td></tr><tr><td/><td>":4466,"▁pressure":4467,"></mml:msup":4468,"mph":4469,"▁colspan=\"1\">0.99":4470,"▁when":4471,"▁colspan=\"6\"><hr/></td></tr><tr><td":4472,"All":4473,"NT":4474,"riv":4475,"▁ref-type=\"table-fn\">":4476,"▁(<italic>N</italic>":4477,"4/":4478,"▁effects":4479,"▁comp":4480,"▁rid=\"tfn":4481,"<sup>b</sup>#n#":4482,"▁colspan=\"1\">N/A</td><td":4483,"02":4484,"</th><th>C":4485,"ia,":4486,"Bank":4487,"<sup><xref":4488,"▁cm":4489,"'s":4490,"</td><td>25":4491,"...":4492,"43</td><td":4493,"▁death":4494,")</td><td>0":4495,"▁X":4496,"0.01":4497,"0.05":4498,"▁CI)</th><th":4499,"</italic><sup>":4500,"▁ref-type=\"bibr\">200":4501,"tage":4502,"><mml:mrow><mml:mi>":4503,"▁colspan=\"1\">100":4504,"e,":4505,"▁colspan=\"1":4506,"rec":4507,"▁organ":4508,"▁colspan=\"1\">High":4509,"monospace>":4510,"Ac":4511,"▁align=\"left\">#n#<bold>":4512,"–7":4513,"</td><td>O":4514,"italic><bold>":4515,"▁align=\"left\">16":4516,"▁valign=\"bottom\">0.5":4517,"▁align=\"right\"><bold>":4518,"▁colspan=\"1\">rs":4519,"46</td><td":4520,"▁colspan=\"1\">2,":4521,"omic":4522,"adi":4523,"▁colspan=\"1\">13.":4524,"▁birth":4525,"ired":4526,"</td><td>6.":4527,"text>":4528,"/\"":4529,"uration":4530,"▁align=\"left\">&lt;":4531,"</td><td>U":4532,"3</td></tr><tr><td>":4533,"▁crit":4534,"10,":4535,"▁<sup>a":4536,"▁values":4537,"▁valign=\"bottom\">0.6":4538,"▁some":4539,"▁deli":4540,"▁(30":4541,"▁width=\"1*\"":4542,"▁charoff=\"50\"":4543,"</italic>#n#</td></tr><tr><td":4544,"▁period":4545,"▁style=\"text-align:":4546,"▁physical":4547,"▁hyper":4548,"▁align=\"left\"/></colgroup><thead":4549,"(1.":4550,"thers":4551,"<sub>1":4552,"tice":4553,"▁Res":4554,"4-":4555,"ator":4556,"</p></td></tr><tr><td":4557,"harm":4558,"ited":4559,"▁colspan=\"1\">18</td><td":4560,"▁appro":4561,"ful":4562,"tax":4563,"</th></tr><tr":4564,"A</td></tr><tr><td":4565,"%</td></tr><tr><td>":4566,"▁align=\"left\">1.0":4567,"▁align=\"center\">M":4568,"▁(mean":4569,"troph":4570,"▁food":4571,"▁colspan=\"1\"><bold>P":4572,"▁rowspan=\"1\">S":4573,"▁dose":4574,"ledge":4575,"▁2.0":4576,"ha":4577,"▁individual":4578,"alis":4579,"uta":4580,"eople":4581,"RR":4582,"47</td><td":4583,"▁they":4584,"<sup>a</sup>":4585,"O</td><td":4586,"E1F":4587,"aternal":4588,"140":4589,"1)</td></tr><tr><td":4590,"▁(</h4><head><style>":4591,"Gene":4592,"▁colspan=\"1\">n.":4593,"epa":4594,"</italic></sub>":4595,"><italic>P</italic>":4596,"▁colspan=\"1\">60":4597,"▁(2.0":4598,"BS":4599,"relation":4600,"-L":4601,"TP":4602,"cop":4603,"▁mass":4604,"▁micro":4605,"iversity":4606,"ges":4607,"–0.9":4608,"▁colspan=\"1\">Not":4609,"-3′":4610,"alid":4611,"▁HIV":4612,"▁program":4613,"ousehold":4614,"-12":4615,"49</td><td":4616,"eam":4617,"▁mus":4618,"▁rid=\"TFN":4619,"▁invol":4620,"posure":4621,"▁(g":4622,"alence":4623,"▁align=\"left\">K":4624,"No.":4625,"ield":4626,"▁vir":4627,"III":4628,"2</td><td>0.":4629,"▁valign=\"bottom\">3.":4630,"itr":4631,"</bold><sup><bold>":4632,"▁colspan=\"1\">#n#<mml:math":4633,"▁17":4634,"-7":4635,"▁occ":4636,"pt\"":4637,"▁medical":4638,"mm":4639,"cording":4640,"th></tr></thead><tbody><tr><td":4641,"/></colgroup><thead><tr><th":4642,"ceived":4643,"ick":4644,"af":4645,"▁categ":4646,"son":4647,"80</td><td":4648,"▁any":4649,"pha":4650,"ience":4651,"▁concentr":4652,"▁colspan=\"1\">14.":4653,"▁colspan=\"1\">29":4654,"ensitiv":4655,"\">\\documentclass[12pt]{minimal}#n#\t\t\t\t\\usepackage{amsmath}#n#\t\t\t\t\\usepackage{wasysym}":4656,"▁cellspacing=\"5\"":4657,"acebo":4658,"3)</td></tr><tr><td":4659,"(5":4660,"etr":4661,"10</td></tr><tr><td":4662,"▁colspan=\"1\">[":4663,"▁colspan=\"1\">22":4664,"High":4665,"-p":4666,"lob":4667,"▁align=\"center\">12":4668,"▁colspan=\"1\">21":4669,"atin":4670,"</td><td>W":4671,"▁Al":4672,"▁rep":4673,"g/L":4674,"ts</td><td":4675,"olesterol":4676,"arly":4677,"▁(0.6":4678,"label":4679,"▁domain":4680,"▁center":4681,"-miR-":4682,"GenBank":4683,"arget":4684,"work":4685,"NC":4686,"italic><":4687,"▁cohort":4688,"Ind":4689,"oderate":4690,"1</italic></td><td":4691,"orph":4692,"terior":4693,"test":4694,"▁app":4695,"▁colspan=\"1\"><italic>P</italic>":4696,"▁colspan=\"1\">Con":4697,"▁align=\"left\"/><th":4698,"▁ly":4699,"oi":4700,"▁valign=\"bottom\">13":4701,"anges":4702,"▁rid=\"TN1\"><sup>":4703,"120":4704,"▁align=\"center\">3.":4705,"▁colspan=\"1\">Gen":4706,"▁valign=\"bottom\">1.0":4707,"▁colspan=\"1\">17</td><td":4708,"BL/":4709,"SM":4710,"ii":4711,"64</td><td":4712,"▁colspan=\"1\">X</td><td":4713,"▁colspan=\"1\">-</td></tr><tr><td":4714,")</bold>#n#</td><td":4715,"?</td><td":4716,")</td><td>4":4717,"▁au":4718,"lyc":4719,"></td></tr></thead><tbody><tr><td":4720,"▁immun":4721,"▁colspan=\"1\">Al":4722,"▁13":4723,"portion":4724,"▁align=\"left\">3</td><td":4725,"▁style=\"border:none;\"":4726,"the":4727,"01</td><td":4728,"–8":4729,"oor":4730,"▁follow-up":4731,"10\">":4732,"▁No</td><td":4733,"ler":4734,"OD":4735,"▁Yes</td><td":4736,"▁xlink:href=\"100":4737,"</td><td>X":4738,"65</td><td":4739,")</p><p>":4740,"week":4741,"▁specific":4742,"\"><thead><tr><th":4743,"▁Ac":4744,"iagn":4745,"D9D9":4746,"52_20":4747,"-F":4748,"▁align=\"center\">C":4749,"▁align=\"left\">p":4750,"lish":4751,"▁xlink:href=\"10052_20":4752,")*":4753,"</td></tr><tr><td>G":4754,"▁(21.":4755,"▁typ":4756,"/><th/><th":4757,"3</td><td>0.":4758,"▁xmlns:ali=\"http://www.niso.org/schemas/ali/1.0/\"":4759,"▁breast":4760,"-19":4761,"▁colspan=\"7\"><hr/></td></tr><tr><td":4762,"▁deg":4763,"6/":4764,"g/m<sup>2</sup>":4765,"OL":4766,"2)</td></tr><tr><td":4767,"<break/>•":4768,"IR":4769,"▁align=\"center\"><":4770,"▁quality":4771,"toc":4772,"lected":4773,"▁(19.":4774,"▁colspan=\"1\">15.":4775,"▁align=\"center\">0":4776,"ogn":4777,"c</td><td":4778,"1\">*":4779,"70</td><td":4780,"Th":4781,"▁life":4782,"ailure":4783,",5":4784,"–10":4785,"▁non":4786,"ailable":4787,"▁11.":4788,"▁primary":4789,"%</td><td>":4790,"ynd":4791,"▁standard":4792,"ros":4793,"▁align=\"char\">0</td><td":4794,"AM":4795,"±0.":4796,"▁related":4797,")</td><td>5":4798,"▁person":4799,"75</td><td":4800,"▁rowspan=\"1\">M":4801,"-related":4802,"neum":4803,"ploy":4804,"▁align=\"char\">3.":4805,"12</td></tr><tr><td":4806,".,":4807,"▁mod":4808,"▁colspan=\"1\">1.5":4809,"oma</td><td":4810,"180":4811,"sk":4812,"▁water":4813,"▁(h":4814,"221E1F":4815,"▁colspan=\"1\">30</td><td":4816,"▁symptoms":4817,"HC":4818,"irect":4819,"ysic":4820,"▁color:#221E1F":4821,"▁color:#221E1F;\"":4822,"115":4823,"/C":4824,"125":4825,"%,":4826,"eft":4827,"act":4828,"J/":4829,"▁home":4830,"▁align=\"char\">10":4831,"▁(SD)</td><td":4832,"bers":4833,"at</td><td":4834,"▁ge":4835,"▁align=\"left\">.":4836,"▁valign=\"bottom\">G":4837,"▁colspan=\"1\"><bold>M":4838,"▁line":4839,"▁char=\"±\">":4840,"▁samples":4841,"tit":4842,"</td><td>7.":4843,"-like":4844,"g/dl":4845,"▁det":4846,"so":4847,"▁colspan=\"1\">10.":4848,"gi":4849,"▁evalu":4850,"</xref>]</td></tr><tr><td>":4851,"160":4852,"Im":4853,"s)</td><td":4854,"1</td></tr></tbody></table></body></html>\n":4855,"E.":4856,"Res":4857,"4</td></tr><tr><td>":4858,"▁(22.":4859,"▁align=\"center\">3</td><td":4860,"▁valign=\"bottom\">14":4861,"▁html><html><body><h4>Summary":4862,"▁1.5":4863,"DR":4864,"▁colspan=\"1\">35":4865,"bul":4866,"▁align=\"left\">4.":4867,"▁requ":4868,"▁(23.":4869,"▁colspan=\"1\"><bold>C":4870,"2F":4871,"ustr":4872,"▁scores":4873,"rough":4874,"11.":4875,"yndrom":4876,"▁colspan=\"1\">23":4877,"PC":4878,"\"><alternatives><tex-math":4879,"</mml:mi><mml:mo>":4880,"ducation":4881,"▁colspan=\"1\">Number":4882,"–9":4883,"▁colspan=\"1\">ND</td><td":4884,"20;\"":4885,"▁cyc":4886,"air":4887,"viron":4888,"▁(40":4889,"▁valign=\"bottom\">11":4890,"▁45":4891,"▁\\":4892,"▁inhibi":4893,"obacter":4894,"▁parameters":4895,"(n":4896,"▁color:#23":4897,"#n#<bold><italic>":4898,"▁compared":4899,"</th><th>D":4900,"EL":4901,"4)</td></tr><tr><td":4902,"ils":4903,"nc":4904,"ultivariate":4905,"pira":4906,"6</td><td>":4907,"PT":4908,"▁4</td><td":4909,"▁gu":4910,"▁according":4911,"tinu":4912,"67</td><td":4913,"▁colspan=\"1\">Z":4914,"></italic>":4915,"A1":4916,"olecules":4917,"▁clinic":4918,"erum":4919,"</mml:mi></mml:mrow":4920,"▁(&lt;":4921,"–20":4922,"rgb":4923,"▁training":4924,"▁research":4925,"11</td></tr><tr><td":4926,"▁95%":4927,"Other":4928,"▁CI)":4929,"▁history":4930,"▁mortality":4931,"pr":4932,"C.":4933,"▁colspan=\"1\">19</td><td":4934,"▁align=\"char\">1</td><td":4935,"fric":4936,"▁metasta":4937,"▁align=\"left\">17":4938,"ensitivity":4939,"▁percent":4940,"▁colspan=\"1\">16.":4941,"▁medic":4942,"110":4943,"6)":4944,"8/":4945,"▁ep":4946,"or:rgb":4947,"abor":4948,"▁Ph":4949,"▁colspan=\"1\">M</td><td":4950,"▁rules=\"all":4951,"▁content-type=\"gen":4952,"</xref>]<hr/></td><td":4953,"▁valign=\"bottom\">2<hr/></td><td":4954,"07":4955,"▁valign=\"bottom\">15":4956,"-20":4957,"▁align=\"center\">+</td><td":4958,"▁align=\"left\">Total":4959,"13</td></tr><tr><td":4960,"▁body":4961,"ece":4962,"dent":4963,"/><td/><td/><td/></tr><tr><td>":4964,"▁sim":4965,"▁people":4966,"▁(.":4967,"Es":4968,"ban":4969,"03":4970,"en</td><td":4971,"ving":4972,"▁measure":4973,"▁old":4974,"▁fea":4975,"▁valign=\"top\"><th":4976,"▁surgery":4977,"hite":4978,"orbid":4979,"hrom":4980,"/l":4981,"▁so":4982,"▁rowspan=\"5\">":4983,"HA":4984,"part":4985,"PP":4986,"4</td><td>0.":4987,"HD":4988,"▁align=\"center\">1.0":4989,"itial":4990,"63</td><td":4991,"aceae":4992,"FS":4993,"▁hour":4994,"▁colspan=\"1\">24</td><td":4995,"iabetes":4996,"><break/>":4997,"▁colspan=\"1\">25</td><td":4998,"▁align=\"left\">Age":4999,"▁development":5000,"▁colspan=\"1\">Low":5001,"▁colspan=\"1\"><inline-graphic":5002,"</sup></xref></td></tr><tr><td":5003,"▁rid=\"c":5004,"urse":5005,"GTA":5006,"thor":5007,"</italic></bold></th><th":5008,"us</italic>":5009,"ides":5010,"▁difference":5011,"▁binding":5012,"▁long":5013,"▁outcomes":5014,"OX":5015,"▁included":5016,"len":5017,"▁Qu":5018,"(0.0":5019,"14</td></tr><tr><td":5020,"▁colspan=\"1\">1.00":5021,"▁html><html><body><h4>Characteristics":5022,"liz":5023,"</td><td>+</td><td>+":5024,"lass":5025,"-9":5026,"129":5027,"▁align=\"left\">18":5028,"▁align=\"left\">–":5029,"rimer":5030,"</td></tr><tr><td>N":5031,"-h":5032,"</bold></sup":5033,"▁html><html><body><h4>Comparison":5034,"ense":5035,"vironment":5036,"▁growth":5037,"istr":5038,"aterial":5039,"break/><bold>":5040,"atory":5041,"IF":5042,"▁colspan=\"1\">%":5043,"GCC":5044,"▁go":5045,"4)":5046,"15%\"":5047,"▁scre":5048,"′-":5049,"255,":5050,"▁(U":5051,"▁assessment":5052,"</td><td>40":5053,"tolic":5054,"tosis":5055,"Sex":5056,"▁months</td><td":5057,"ysician":5058,"DDB":5059,"gr":5060,"▁colspan=\"1\">≥":5061,"▁strain":5062,"GFR":5063,"essional":5064,"etal":5065,"105":5066,"16</td></tr><tr><td":5067,"15</td></tr><tr><td":5068,"1F20;\"":5069,"<sup>+</sup>":5070,"−0.0":5071,"cept":5072,"ssoci":5073,"A.":5074,"ationship":5075,"▁1pt;":5076,"verse":5077,"▁tra":5078,"ages":5079,"▁color:#231F20;\"":5080,"▁align=\"center\">&lt;":5081,"uk":5082,"</mml:mi></mml:mrow><mml:mrow><mml:m":5083,"62</td><td":5084,"▁rowspan=\"5\"":5085,"▁Am":5086,"▁colspan=\"1\">X":5087,"olume":5088,"▁align=\"center\">A":5089,"GenBank\"":5090,"EMBL/":5091,"J/EMBL/":5092,"▁colspan=\"1\">CD":5093,"DDBJ/EMBL/":5094,"▁ext-link-type=\"DDBJ/EMBL/":5095,"▁ext-link-type=\"DDBJ/EMBL/GenBank\"":5096,"▁into":5097,"▁social":5098,"04":5099,"▁Age":5100,"▁ter":5101,"ause":5102,"</th><th>F":5103,"rop":5104,"ray":5105,"ffect":5106,"▁(33.":5107,"ellular":5108,"lex":5109,"/T":5110,"frac":5111,"Year":5112,"▁chem":5113,"▁protein</td><td":5114,"1</td><td>0.0":5115,"yp":5116,"00<hr/></td><td":5117,"▁background-col":5118,"▁outcome":5119,"otential":5120,"▁Sc":5121,"eness":5122,"▁case":5123,"erm":5124,"10)</td><td":5125,"▁lymph":5126,"▁coli":5127,"00)</td><td":5128,"</sub>H<sub>":5129,"▁align=\"center\">13":5130,"unit":5131,"/c":5132,"pm":5133,"▁survival":5134,"▁through":5135,"▁Inter":5136,"taining":5137,"▁0.01":5138,"</td><td>27":5139,"</sub>#n#</td><td":5140,"▁lo":5141,"–0.8":5142,"8)":5143,"time":5144,"▁diet":5145,"▁align=\"left\">19":5146,"</td><td>24":5147,"</td><td>50":5148,"leep":5149,"enced":5150,"▁colspan=\"1\">Yes":5151,"/S":5152,"tivity":5153,"piratory":5154,"▁colspan=\"1\">0.00</td><td":5155,"enal":5156,"LT":5157,"▁colspan=\"1\"><hr/></td><td":5158,"▁*":5159,"▁valign=\"bottom\">+":5160,"::":5161,"▁indic":5162,"▁style=\"background-color:#E":5163,"▁•":5164,"B,":5165,"▁colspan=\"1\">F</td><td":5166,"3%)</td><td":5167,"atisf":5168,"61</td><td":5169,"▁12.":5170,"</td><td>28":5171,"▁pregnanc":5172,"▁colspan=\"1\">Par":5173,"▁colspan=\"1\">Reference":5174,"▁colspan=\"1\">Q":5175,"68</td><td":5176,"-n":5177,"</bold><sup>":5178,"▁align=\"left\">4</td><td":5179,"▁colspan=\"1\">21</td><td":5180,"▁align=\"left\">+</td><td":5181,"11,":5182,"▁Par":5183,"tandard":5184,"▁new":5185,"FFFF":5186,"sh":5187,"6)</td></tr><tr><td":5188,"</bold><bold>":5189,"\">20":5190,"66</td><td":5191,"emic":5192,"▁has":5193,"box\"":5194,"▁frame=\"box\"":5195,"▁pathway":5196,"128":5197,"▁increased":5198,"-G":5199,"▁(%":5200,"▁colspan=\"1\">c":5201,"ATT":5202,"ough":5203,"0.16":5204,"▁well":5205,"▁ur":5206,"issing":5207,"ost-":5208,"▁duration":5209,"116":5210,"evel":5211,"▁2015":5212,"▁plas":5213,"ste":5214,"known</td><td":5215,"/></tr></thead><tbody><tr><td":5216,"▁(26.":5217,"08":5218,"app":5219,"t,":5220,"1</td><td>1.":5221,"▁estim":5222,"13\"":5223,"▁carcin":5224,"▁(0–":5225,"tate":5226,"occus":5227,"ients":5228,"bold><":5229,"sual":5230,"}$$\\end{document}</tex-math><mml:math":5231,"SF":5232,"6</td></tr><tr><td>":5233,"1</td><td>1":5234,"):":5235,"▁colspan=\"1\">17.":5236,"</ext-link>":5237,"▁pol":5238,"▁colspan=\"1\">22</td><td":5239,"ternal":5240,"▁valign=\"bottom\">16":5241,"▁IV":5242,"▁admission":5243,"▁ID":5244,"CGA":5245,"▁valign=\"middle\">":5246,"tical-":5247,"▁hel":5248,"▁colspan=\"1\">18.":5249,"dds":5250,"pound":5251,"▁style=\"background-color:#D":5252,"que":5253,"▁may":5254,"max":5255,"▁colspan=\"1\">✓</td><td":5256,"▁extrac":5257,"iety":5258,"1</bold></td><td":5259,"▁align=\"center\">T":5260,"</monospace":5261,"</td><td>0.000":5262,"▁colspan=\"2\"><hr/></td></tr><tr><td":5263,"EP":5264,"tical-align:":5265,"▁Total":5266,"</sup>#n#</td></tr><tr><td":5267,"</bold><hr/></th></tr><tr><th":5268,"72</td><td":5269,"opath":5270,"umab":5271,"in,":5272,"▁dif":5273,"K</td><td":5274,"</italic></sup>":5275,"ressed":5276,"(6":5277,"▁statis":5278,"▁synth":5279,"▁least":5280,"vey":5281,"▁0.75":5282,"</td><td>Y":5283,"▁2014":5284,"13.":5285,"69</td><td":5286,"/5":5287,"85</td><td":5288,"HO":5289,"▁should":5290,"12)</td><td":5291,"90</td><td":5292,"▁three":5293,"tab":5294,"ivariate":5295,"ias":5296,"MR":5297,"▁valign=\"bottom\">20":5298,")</td><td>6":5299,"–4.":5300,"/2":5301,"itor":5302,"▁Group":5303,"LR":5304,"C,":5305,"5.0)</td><td":5306,"▁colspan=\"1\"><bold>T":5307,"xiety":5308,"ema":5309,"12.":5310,"for":5311,"▁rowspan=\"1\">P":5312,"▁access":5313,"▁style=\"background-color:#F":5314,"▁failure":5315,"▁rules=\"all\"><thead><tr><th":5316,"8)</td></tr><tr><td":5317,"▁mg/kg":5318,"▁both":5319,"▁available":5320,"▁study</td></tr><tr><td":5321,"▁2013":5322,"71</td><td":5323,"12,":5324,"AF":5325,"25</td></tr><tr><td":5326,"</th><th>T":5327,"▁colspan=\"1\">Control":5328,"</td><td>In":5329,"esults":5330,"78</td><td":5331,"▁(27.":5332,"▁syndrom":5333,"▁times":5334,"ik":5335,"▁html><html><body><h4>F":5336,"6-":5337,"ackground:":5338,"▁span=\"1\"/><thead><tr":5339,"gif\"/></alternatives></inline-formula>#n#</td><td":5340,"ores":5341,"▁item":5342,"▁(24.":5343,"▁versus":5344,"ostic":5345,"▁(28.":5346,"▁fat":5347,"vascular":5348,"▁(25.":5349,"74</td><td":5350,"sur":5351,"▁subjects":5352,"train":5353,"ey":5354,"▁negative":5355,"▁align=\"center\">4</td><td":5356,"-ij":5357,"▁behavior":5358,"*<hr/></td><td":5359,"114":5360,"mend":5361,"ocus":5362,"76</td><td":5363,"▁decre":5364,"▁html><html><body><h4>L":5365,"▁frac":5366,"</italic><sub><italic>":5367,"▁read":5368,"190":5369,"xic":5370,"▁injur":5371,"11)</td><td":5372,"ajor":5373,"medi":5374,"BFBF":5375,"84</td><td":5376,"7)</td></tr><tr><td":5377,"CU":5378,"1%)</td><td":5379,"ject":5380,"</named-content>":5381,"▁(15":5382,"</italic>)</td><td":5383,"]<hr/></td><td":5384,"▁Gen":5385,"></mml:math>#n#</td><td":5386,"ol</td><td":5387,"▁how":5388,"▁vac":5389,"ulture":5390,"duced":5391,"0.99":5392,"(%)":5393,"tion</td><td":5394,"10<sup>":5395,"▁colspan=\"1\">Ac":5396,"0.00</td><td":5397,"perature":5398,"}}":5399,"▁increase":5400,"▁rea":5401,"▁(1)</td><td":5402,"83</td><td":5403,"▁log":5404,"▁colspan=\"10\"":5405,"/min":5406,"▁<sup>b":5407,"▁align=\"char\">1.0":5408,"ures":5409,"73</td><td":5410,"89</td><td":5411,"88</td><td":5412,"±0.0":5413,"ON":5414,"bulle":5415,"▁site":5416,"3\"><sup>":5417,"hat":5418,"ined":5419,"▁colspan=\"1\">This":5420,"</p><p>(":5421,"rm":5422,"<sub>4":5423,"▁observ":5424,"▁equ":5425,"</sup></bold":5426,"▁align=\"left\">Yes</td><td":5427,"ade":5428,"RE":5429,"▁valign=\"top\"><td>#n#<bold>":5430,"1_":5431,"iation":5432,"sub><bold>":5433,"ergy":5434,"▁compon":5435,"81</td><td":5436,"▁As":5437,"20</td></tr><tr><td":5438,"</td><td>[":5439,"▁→":5440,"a</italic></td><td":5441,"Dis":5442,"▁Co":5443,"omal":5444,"▁rules=\"groups\"><tbody><tr><td":5445,"▁(+":5446,"86</td><td":5447,"▁human":5448,"▁z":5449,"DM":5450,"bullet\"":5451,"n/":5452,"150":5453,"▁align=\"center\">14":5454,"▁mark":5455,"▁style=\"padding-left:15%\"":5456,"▁list-type=\"bullet\"":5457,"14)</td><td":5458,"▁signaling":5459,"79</td><td":5460,"▁align=\"center\">11":5461,"s<hr/></td><td":5462,"itamin":5463,"_{":5464,"echan":5465,"pression":5466,"▁interval":5467,"▁0.01</td><td":5468,"82</td><td":5469,"09":5470,"▁48":5471,"5.0</td><td":5472,"▁valign=\"bottom\">4.":5473,"S,":5474,"17</td></tr><tr><td":5475,"▁(years)</td><td":5476,"▁align=\"left\"><bold>S":5477,"13)</td><td":5478,"▁align=\"char\">.":5479,"6</td><td>0.":5480,"▁mel":5481,"▁id=\"nlm-math-":5482,"ercise":5483,"▁activities":5484,"▁2016":5485,"naire":5486,"▁management":5487,"15)</td><td":5488,"7)":5489,"echn":5490,"17,":5491,"▁valign=\"bottom\">.":5492,"▁variables":5493,"ent</td><td":5494,"▁rowspan=\"1\"/><td":5495,"pecies\">":5496,"77</td><td":5497,"</italic>#n#</td><td>":5498,"▁cons":5499,"87</td><td":5500,"5-":5501,"▁normal":5502,"<sup>c</sup></td><td":5503,"d</td><td":5504,"cal":5505,"eek":5506,"&lt;0.001</td></tr><tr><td>":5507,"</td><td>29":5508,"7/":5509,"▁90":5510,"▁colspan=\"1\">19.":5511,"</th><th>N":5512,"▁BMI":5513,"▁align=\"char\"/></tr><tr><td":5514,"creased":5515,"▁colspan=\"1\">The":5516,"▁‘":5517,"▁struc":5518,"aximum":5519,"▁main":5520,"VA":5521,"</th><td":5522,"ymph":5523,"ypertension":5524,"▁colspan=\"1\">0.05":5525,"-cell":5526,"></tr></thead><tbody><tr":5527,"▁colspan=\"1\"><italic>p</italic>":5528,"PI":5529,"eb":5530,"▁practice":5531,"></mml:msubsup":5532,"▁criteria":5533,"</bold>#n#</td></tr><tr":5534,"▁html><html><body><h4>T":5535,"OH":5536,"▁inc":5537,"▁<italic>P</italic>":5538,"</td><td>8.":5539,"och":5540,"ant</td><td":5541,"▁last":5542,"value":5543,"▁align=\"left\">No":5544,"▁align=\"center\">4.":5545,"neumon":5546,"▁65":5547,"▁Male":5548,"▁(10.":5549,"▁would":5550,"</td><td>26":5551,"ercentage":5552,"’t":5553,"9–":5554,"tention":5555,"ed,":5556,"113":5557,"95</td><td":5558,":0":5559,"▁stress":5560,"tomy":5561,"ins":5562,"▁colspan=\"1\">Male</td><td":5563,"ns</td><td":5564,"<break/><italic>":5565,"▁Female":5566,"(<italic>":5567,"vertical-align:":5568,"▁content-type=\"genus":5569,"i</td><td":5570,"7</td></tr><tr><td>":5571,"<sup>**":5572,"▁rid=\"TF":5573,"▁Low":5574,"*</sup></xref></td><td":5575,"entral":5576,"18</td></tr><tr><td":5577,"▁features":5578,"afe":5579,"ess</td><td":5580,"▁(e":5581,"tial":5582,"▁2012":5583,"▁background-color:rgb":5584,"tact":5585,"efficient":5586,"▁post":5587,"▁html><html><body><h4>E":5588,"▁(-":5589,"▁abs":5590,"▁interaction":5591,"▁kin":5592,"▁align=\"left\">No</td><td":5593,"▁name":5594,"S</td></tr><tr><td":5595,"emor":5596,"0.1</td><td":5597,",8":5598,"pp":5599,"sulin":5600,"▁will":5601,"oz":5602,"▁colspan=\"1\">50</td><td":5603,"aging":5604,"▁colspan=\"1\">Inter":5605,"▁valign=\"bottom\">17":5606,"▁community":5607,"▁exposure":5608,"iated":5609,"/−":5610,"▁align=\"char\">4.":5611,"brane":5612,"g</td><td":5613,"</bold></td></tr></thead><tbody><tr><td":5614,".<break/>":5615,"▁intake":5616,"<sup>†":5617,"9)":5618,"▁daily":5619,"NR":5620,"</mml:mo></mml:mrow":5621,"▁colspan=\"1\">−1.":5622,"▁flu":5623,"Model":5624,"▁AD":5625,"-11":5626,"▁#n#\t\t\t\t\\usepackage{amsbsy}#n#\t\t\t\t\\usepackage{mathrsfs}#n#\t\t\t\t\\usepackage{upgreek}#n#\t\t\t\t\\setlength{\\oddsidemargin}{-69pt}#n#\t\t\t\t\\begin{document}$$\\":5627,"▁align=\"left\">5</td><td":5628,"▁colspan=\"1\">23</td><td":5629,"▁them":5630,"2%)</td><td":5631,"▁prior":5632,"italic\">":5633,"▁thin\"><td":5634,"▁xlink:href=\"http":5635,"mic":5636,"▁DNA":5637,"▁mutation":5638,"CTA":5639,"9)</td></tr><tr><td":5640,"▁align=\"center\">15":5641,"/or":5642,"<sup>e":5643,"olution":5644,"▁gyr":5645,"50</td></tr><tr><td":5646,"rontal":5647,"▁ST":5648,"▁colspan=\"1\"><italic>S":5649,"▁including":5650,"lines":5651,")</td><td>&lt;":5652,"ven":5653,"ca":5654,"imen":5655,"rosis":5656,"▁rid=\"B5":5657,"orth":5658,"actor":5659,"iving":5660,"8</td></tr><tr><td>":5661,"▁te":5662,"▁calc":5663,"</mml:mn><mml:mo>±":5664,"ake":5665,"▁heart":5666,"▁70":5667,"▁align=\"left\">5.":5668,"▁colspan=\"2\"><bold>":5669,"▁metabolis":5670,"Y</td><td":5671,"ah":5672,"▁valign=\"bottom\">3<hr/></td><td":5673,"▁colspan=\"1\">#n#<ext-link":5674,"▁colspan=\"1\">d":5675,"▁int":5676,"Co":5677,"E−0":5678,"anced":5679,"thnic":5680,"bb":5681,"</th><th>R":5682,"▁colspan=\"1\">0.0</td><td":5683,"P.":5684,"<sup>b</sup>#n#</td><td":5685,"▁ox":5686,"▁colspan=\"1\">0.12":5687,"</xref>)":5688,"▁species":5689,"pair":5690,"etwork":5691,"▁13.":5692,"-N":5693,"112":5694,"s/":5695,"IM":5696,"haracteristic":5697,"▁(100)</td><td":5698,"onal":5699,"=\"0\"":5700,"▁phosph":5701,"lifer":5702,"▁tissue":5703,"▁Im":5704,"▁review":5705,"ensive":5706,"▁#000000;\"><td":5707,"92</td><td":5708,"▁ro":5709,"sumption":5710,"egion":5711,",7":5712,"96</td><td":5713,"▁top":5714,"cul":5715,"▁varian":5716,"osed":5717,"▁like":5718,"4%)</td><td":5719,"▁nucle":5720,"stit":5721,"<break/>#n#":5722,"▁(25":5723,"OM":5724,"▁5</td><td":5725,"idne":5726,"g/day":5727,"▁post-":5728,"otherapy":5729,")</td><td>−":5730,"orward":5731,"▁valign=\"bottom\">18":5732,"1<hr/></td></tr><tr><td":5733,"▁colspan=\"1\">45":5734,"▁No.":5735,"Δ<italic>":5736,"rial":5737,"98</td><td":5738,"7</td><td>":5739,"arm":5740,"IG":5741,"CT0":5742,"erences":5743,"▁of</h4><head><style>":5744,"DE":5745,"▁cellspacing=\"0\"":5746,"ardiac":5747,"7</td><td>0.":5748,"▁male":5749,"▁disease</td><td":5750,"▁combin":5751,"ocation":5752,"▁80":5753,"▁(29.":5754,"▁cancer</td><td":5755,"▁(min":5756,"▁style=\"background:":5757,"</td><td>35":5758,"8</td><td>":5759,"/20":5760,"</th><th>A":5761,"91</td><td":5762,"30\"":5763,"s:":5764,"▁rid=\"bib":5765,"▁colspan=\"1\">21.":5766,"▁feed":5767,"▁higher":5768,"emales":5769,"</th></tr></thead><tbody><tr":5770,"%)<hr/></td></tr><tr><td":5771,"t</italic>":5772,"▁colspan=\"1\">#n#<break/>#n#</td></tr><tr":5773,"▁recom":5774,"crib":5775,"ognitive":5776,"ella":5777,"▁0.25":5778,"/F":5779,"▁female":5780,"▁hom":5781,"20\"":5782,"▁colspan=\"1\"><bold>0.0":5783,"</td><td>22":5784,"▁colspan=\"1\">22.":5785,"/N":5786,"19</td></tr><tr><td":5787,"▁(60":5788,"lycer":5789,"▁valign=\"bottom\">E":5790,"▁2011":5791,"▁align=\"char\">#n#<bold>":5792,"</td><td/><td/><td/><td/><td":5793,"▁cle":5794,"93</td><td":5795,"-16":5796,"▁2,":5797,"ocal":5798,"▁visit":5799,"</td><td>23":5800,"▁(3.0":5801,"▁span=\"1\"/></colgroup><thead><tr><th":5802,"dr":5803,"AAA":5804,"ght":5805,"reast":5806,"▁3.0":5807,"94</td><td":5808,"▁lower":5809,"▁der":5810,"Health":5811,"▁colspan=\"1\">Female</td><td":5812,"0.5</td><td":5813,")</td><td>7":5814,"TTT":5815,"plication":5816,"<sup>b</sup></td><td>":5817,"▁colspan=\"8\">":5818,"</bold></sup>":5819,"▁(0.0)</td><td":5820,"▁colspan=\"1\">No.":5821,"▁<hr/></th><th":5822,"escription":5823,"ect":5824,"ulmon":5825,"me":5826,"i.":5827,"operative":5828,"▁smoking":5829,"<sub>2</sub></td><td":5830,"O:00":5831,"▁align=\"center\">5</td><td":5832,"0.001":5833,"8</td><td>0.":5834,"▁lesion":5835,"24</td></tr><tr><td":5836,"▁rowspan=\"2\"/><th":5837,"▁acc":5838,"▁(31.":5839,"▁align=\"left\">Pro":5840,"dies":5841,"▁staff":5842,"▁colspan=\"1\">R</td><td":5843,"▁align=\"left\"><ext-link":5844,"patient":5845,"▁colspan=\"1\">0.10":5846,"Low":5847,"<sup>1":5848,"BI":5849,"▁</bold>":5850,"/day":5851,"▁colspan=\"1\">40</td><td":5852,"▁measures":5853,"egative</td><td":5854,"odes":5855,"▁design":5856,"13,":5857,"ine,":5858,"ibility":5859,"▁rid=\"TN2\"><sup>":5860,"Pre":5861,"▁most":5862,"▁PD":5863,"OT":5864,"▁colspan=\"1\">•":5865,"▁services":5866,"▁rid=\"z":5867,"olic":5868,"SH":5869,"crip":5870,"▁html><html><body><h4>Demographic":5871,"▁colspan=\"1\">32":5872,"yg":5873,"><mml:mrow><mml:mn>":5874,"17)</td><td":5875,"▁align=\"center\">16":5876,"▁pat":5877,"▁isol":5878,"▁diabetes":5879,"97</td><td":5880,"▁colspan=\"1\">23.":5881,"23</td></tr><tr><td":5882,"position":5883,"eding":5884,"▁75":5885,"iatric":5886,"ints":5887,"hen":5888,")</td><td>0.8":5889,"CIT":5890,"▁colspan=\"1\">NR</td><td":5891,"tos":5892,"▁(mmol/L":5893,"▁lung":5894,"umin":5895,"▁err":5896,"55</td><td":5897,"CGT":5898,"ibr":5899,"▁events":5900,"▁bec":5901,"16)</td><td":5902,"▁ill":5903,"0.25":5904,"As":5905,"adjusted":5906,"▁session":5907,"iph":5908,"her":5909,"atr":5910,"▁colspan=\"1\">32</td><td":5911,"▁head":5912,"▁value</th></tr></thead><tbody><tr><td":5913,"▁subunit":5914,"▁changes":5915,"omin":5916,"ources":5917,"ilar":5918,"ways":5919,"MC":5920,"▁al</italic>.":5921,"YP":5922,"▁rowspan=\"1\">C":5923,"seud":5924,"▁colspan=\"1\">0.13":5925,"▁rowspan=\"2\">S":5926,"▁dist":5927,"-15":5928,"-1</td><td":5929,"/10":5930,"14.":5931,"face":5932,"cord":5933,"/3":5934,"06":5935,"▁smok":5936,"▁and/or":5937,"▁due":5938,"▁ben":5939,"▁don":5940,"ethod":5941,"lectr":5942,"</xref></sup>":5943,"2</sup>":5944,"s.</td><td":5945,"></th></tr></thead><tbody><tr><td":5946,"▁knowledge":5947,"ypo":5948,"▁(%)</th></tr></thead><tbody><tr><td":5949,"<sup>#":5950,")</bold><hr/></td><td":5951,"▁sk":5952,"ressive":5953,"Adjusted":5954,"hibition":5955,"▁Per":5956,"▁colspan=\"1\">N</td><td":5957,"</sup></xref>":5958,"9</td></tr><tr><td>":5959,"▁colspan=\"1\">26</td><td":5960,"▁align=\"left\"><bold><italic>":5961,"53</td><td":5962,"▁colspan=\"1\">Res":5963,"▁align=\"left\">–</td></tr><tr><td":5964,"-8":5965,"▁Ig":5966,"18)</td><td":5967,"▁report":5968,"20)</td><td":5969,"hood":5970,"BA":5971,"ulmonary":5972,"▁Not":5973,"ier":5974,"▁0.1</td><td":5975,"▁2017":5976,"▁2010":5977,"▁did":5978,"arried":5979,"▁cells</td><td":5980,"inter":5981,"▁performance":5982,"NA</td><td":5983,"▁(mmHg":5984,"▁mal":5985,"ardio":5986,"▁</italic>=":5987,".000":5988,"▁valign=\"bottom\">&lt;":5989,"aa":5990,"▁colspan=\"1\">0.98":5991,"▁colspan=\"1\">99.":5992,"▁show":5993,"▁xmlns:ali=\"http://www.niso.org/schemas/ali/1.0\"":5994,"%)</td></tr></tbody></table></body></html>\n":5995,"▁(E":5996,"▁CH":5997,"▁frequency":5998,"</td><td>0.4":5999,"▁colspan=\"1\">28</td><td":6000,"9</td><td>":6001,"▁colspan=\"1\">33":6002,"><mml:mrow><mml:mo>":6003,"BD":6004,"▁grade":6005,"▁adv":6006,"lack":6007,"▁align=\"left\">[":6008,"-V":6009,"170":6010,"▁loss":6011,"14,":6012,"PL":6013,"▁scale":6014,"miR-":6015,"CC</td><td":6016,"ral":6017,"▁scope=\"colgroup":6018,"TR":6019,"ensis":6020,"n</td><td":6021,"▁colspan=\"1\">Other":6022,"eason":6023,"▁right":6024,"iddle":6025,"ity,":6026,"22</td></tr><tr><td":6027,"5</td><td>":6028,"▁rat":6029,"7%)</td><td":6030,"30</td></tr><tr><td":6031,"▁arter":6032,"ults":6033,"5</td></tr><tr><td>":6034,"▁colspan=\"1\">.00":6035,"illi":6036,"regulated":6037,"/></tr><tr><th":6038,"6%)</td><td":6039,"▁ve":6040,"ysis":6041,"rag":6042,"▁</sup>":6043,"iency":6044,"54</td><td":6045,"▁alle":6046,"56</td><td":6047,"▁(2)</td><td":6048,"O<sub>2</sub>":6049,"<sup>3</sup>":6050,"a.":6051,"ian</td><td":6052,"pre":6053,"den":6054,"▁sequence":6055,"HS":6056,"▁valign=\"bottom\">19":6057,"▁list-type=\"bullet\"><list-item><p>":6058,"t.":6059,"</td><td>200":6060,"▁align=\"center\">F":6061,"▁colspan=\"1\">Pre":6062,"osts":6063,"#n#<xref":6064,"▁align=\"left\">Mean":6065,"ano":6066,"52</td><td":6067,"▁colspan=\"1\">80":6068,"Anti":6069,"▁analys":6070,"▁rid=\"zoi":6071,"▁drin":6072,"1:":6073,"▁colspan=\"1\">0.14":6074,"1</italic>":6075,"▁colspan=\"1\">36":6076,"aneous":6077,"><thead><tr><td":6078,"▁scope=\"colgroup\"":6079,"**</td></tr><tr><td":6080,"tac":6081,"20,":6082,"15,":6083,"6.7</td><td":6084,"-molecules":6085,"arital":6086,"estation":6087,"arch":6088,"▁28":6089,"▁(95":6090,"7.5</td><td":6091,"ologic":6092,"%<hr/></td></tr><tr><td":6093,"tep":6094,"▁volume":6095,"▁colspan=\"1\">24.":6096,"-r":6097,"sider":6098,"</mml:mo><mml:mi>":6099,"10.":6100,"300":6101,"transfer":6102,")</td><td>0.9":6103,"▁rid=\"CIT":6104,"upation":6105,"-13":6106,"50)</td><td":6107,"US":6108,"italic></td><td":6109,"25)</td><td":6110,"5)</td></tr><tr><td":6111,"Overall":6112,"▁therap":6113,"▁gender":6114,"ector":6115,"</td></tr></thead><tbody><tr":6116,"▁align=\"center\"><bold><italic>":6117,"Out":6118,"14\"":6119,"-I":6120,"▁colspan=\"1\">2</td></tr><tr><td":6121,"▁identified":6122,"iet":6123,"▁14.":6124,"▁evidence":6125,"▁colspan=\"1\">↑":6126,"DS":6127,"▁align=\"left\">25":6128,"ories":6129,"▁(w":6130,"1</td></tr><tr":6131,"ho":6132,"ised":6133,"BR":6134,"▁lear":6135,"true":6136,"▁delivery":6137,"tegr":6138,"▁colspan=\"1\">hsa":6139,"II</td><td":6140,"</td></tr><tr><td>E":6141,"</bold><break/><bold>":6142,"alized":6143,"2</bold></td><td":6144,"▁medication":6145,"(7":6146,"▁align=\"left\">Un":6147,"▁10.":6148,"utes":6149,"▁bacter":6150,"13\">":6151,"▁influ":6152,"plementation":6153,"<hr/></th></tr><tr><th":6154,"▁less":6155,"▁glucose":6156,"ogenic":6157,")</td><td>2.":6158,"8%)</td><td":6159,"51</td><td":6160,"▁(36.":6161,"▁inhibitor":6162,"▁finding":6163,"15.":6164,"30)</td><td":6165,"</mml:mn><mml:mo>±</mml:mo><mml:mn>":6166,"9</td><td>0.":6167,"▁colspan=\"1\">27</td><td":6168,"▁align=\"left\">6</td><td":6169,"</italic></td><td><italic>":6170,"</td><td>N/A":6171,"▁what":6172,"ister":6173,"▁(−0.":6174,"▁circ":6175,"Female":6176,"erman":6177,"▁rules=\"groups\"><thead><tr":6178,"OP":6179,"1;":6180,"tam":6181,"▁valign=\"top\"/><td":6182,"▁style=\"border-right:":6183,"▁there":6184,"19)</td><td":6185,"EA":6186,"jpg\"/></td><td":6187,"TG":6188,"▁(37.":6189,"tained":6190,"CT</td><td":6191,"ash":6192,"▁cap":6193,"▁colspan=\"1\">0.15":6194,"</td><td>45":6195,"▁colspan=\"1\">Im":6196,"</bold></th></tr><tr><th":6197,"▁interview":6198,"▁good":6199,"▁psych":6200,"▁(35.":6201,"▁align=\"center\">.":6202,"▁help":6203,"▁reco":6204,"vs":6205,"omy":6206,"let":6207,"ify":6208,"▁(32.":6209,"lamma":6210,"▁rid=\"B2":6211,"1</td><td>−":6212,"CM":6213,"H,":6214,"▁align=\"char\">12":6215,"▁GA":6216,")</th></tr></thead><tbody><tr><td>":6217,"▁colspan=\"9\">":6218,"B.":6219,")</td><td>0.7":6220,"ino":6221,"opro":6222,",6":6223,"▁current":6224,"ers</td><td":6225,"▁colspan=\"1\">A</td><td":6226,"arcin":6227,"lan":6228,"▁neur":6229,"Inf":6230,"▁align=\"char\">#n#<italic>":6231,"er,":6232,"▁align=\"left\">24":6233,"▁men":6234,"a<hr/></td><td":6235,"aly":6236,"▁colspan=\"1\">34":6237,"▁align=\"left\"><bold>P":6238,"erb":6239,"▁rid=\"B10":6240,"▁complex":6241,"▁colspan=\"1\"><bold>D":6242,"▁household":6243,"▁colspan=\"1\">En":6244,"▁(34.":6245,"</td><td>V":6246,"28</td></tr><tr><td":6247,"▁Pre":6248,"▁1pt\"":6249,"2.5</td><td":6250,"▁Afric":6251,"▁above":6252,"evere":6253,"▁colspan=\"1\">Variable":6254,"DA":6255,"-note-00":6256,"▁import":6257,"ele":6258,"▁public":6259,"um</italic>":6260,"<sup>b</sup>":6261,"uch":6262,"▁align=\"center\">R":6263,"3.3</td><td":6264,"imental":6265,"▁align=\"left\">Ref":6266,"aboratory":6267,"▁colspan=\"1\">All":6268,"▁style=\"width:":6269,"59</td><td":6270,"▁valign=\"bottom\">W":6271,"acro":6272,"lav":6273,"▁colspan=\"1\">0.16":6274,"ospitali":6275,"^{":6276,"▁colspan=\"1\">25.":6277,"▁potential":6278,"</bold>,":6279,"imple":6280,"ust":6281,"▁liver":6282,"</td><td>60":6283,"15\"":6284,"LP":6285,"iRNA":6286,"57</td><td":6287,"zym":6288,"</xref>],":6289,"rea":6290,"58</td><td":6291,"anti":6292,"▁valign=\"bottom\">5.":6293,"care":6294,"19,":6295,"til":6296,"▁0.02":6297,"▁colspan=\"1\">s":6298,"></mml:math></inline-formula>":6299,"▁devi":6300,"26</td></tr><tr><td":6301,"▁valign=\"bottom\">4<hr/></td><td":6302,"▁(12":6303,"–0.7":6304,"</italic>#n#</td></tr><tr><td>":6305,"plications":6306,"▁alcohol":6307,"termin":6308,"▁</td><td>":6309,"positive":6310,"tyl":6311,"1%":6312,"▁no.":6313,"▁colspan=\"1\">Y</td><td":6314,"4.0)</td><td":6315,"▁colspan=\"1\">Ind":6316,"on</td><td":6317,"alk":6318,"▁been":6319,"</td><td>2.0":6320,"mb":6321,"▁limit":6322,"pen":6323,"▁(reference":6324,"ings":6325,"&lt;0.001</td></tr><tr><td":6326,"▁colspan=\"8\"><hr/></td></tr><tr><td":6327,"-1.0":6328,"asal":6329,"100</td><td":6330,"0.10":6331,"▁1.0pt;":6332,"▁align=\"left\">6.":6333,"</th><th>%":6334,"Be":6335,"▁colspan=\"1\">Median":6336,"▁valign=\"bottom\">No":6337,"</xref>]<hr/></td></tr><tr><td":6338,"▁previous":6339,"O:000":6340,"ascular":6341,"roid":6342,"<sup>ab":6343,"<sub>1</sub>":6344,"</mml:mi><mml:mn>":6345,"nt":6346,"▁cellpadding=\"5\"><thead><tr><td":6347,"Type":6348,"▁(0.4":6349,"▁strateg":6350,"otype":6351,"▁proced":6352,"▁del":6353,"24)</td><td":6354,"ditional":6355,"bili":6356,"27</td></tr><tr><td":6357,"</td><td>K":6358,"/f":6359,"ince":6360,"▁center;\"":6361,"▁single":6362,"22)</td><td":6363,"▁mathvariant=\"italic\">":6364,"phosph":6365,"2</italic></td><td":6366,"urrence":6367,"▁Col":6368,"▁fe":6369,"▁colspan=\"1\"><italic>M":6370,"tions":6371,"▁align=\"center\">D":6372,"▁(kg":6373,"▁rid=\"CR5":6374,"▁(38.":6375,")</td><td>8":6376,"▁relationship":6377,"▁colspan=\"1\">37":6378,"▁resistance":6379,"</sup><hr/></td></tr><tr><td":6380,"12\">":6381,"▁(<italic>p</italic>":6382,"▁el":6383,"olar":6384,"29</td></tr><tr><td":6385,"lammatory":6386,"tag":6387,"▁(SD)":6388,"▁mice":6389,"(8":6390,"ibo":6391,"▁rid=\"CR4":6392,"▁admin":6393,"lac":6394,"▁partici":6395,"▁colspan=\"1\">↓":6396,"▁days</td><td":6397,"▁align=\"center\">17":6398,"total":6399,"BMI":6400,"Male":6401,"</td><td>9.":6402,"▁self-":6403,"ticipant":6404,"CTTT":6405,"R,":6406,"arbo":6407,"ately":6408,"C<sub>":6409,"biotic":6410,"▁pregnancy":6411,"▁(e.g":6412,"▁miR-":6413,"▁(0.99":6414,"-specific":6415,"▁style=\"vertical-align:":6416,"/0":6417,"▁(mg/dL":6418,"color:#":6419,"><mml:mtext>":6420,"23)</td><td":6421,"▁colspan=\"1\">0.17":6422,"epression":6423,"▁colspan=\"1\">c.":6424,"fusion":6425,"9%)</td><td":6426,"▁serum":6427,"EV":6428,"▁colspan=\"1\">31":6429,"▁tu":6430,"pact":6431,"><hr/></th><th":6432,"utrition":6433,"▁colspan=\"1\">3,":6434,"#n#<sup>a":6435,"▁0.2</td><td":6436,"▁colspan=\"1\">28.":6437,"▁html><html><body><h4>Baseline":6438,"▁colspan=\"1\">C</td><td":6439,"</td><td>48":6440,"styled":6441,"1)<hr/></td><td":6442,"▁colspan=\"1\">38":6443,"styled-content":6444,"33</td></tr><tr><td":6445,"2</td><td>1":6446,"▁mental":6447,"Med":6448,"▁prot":6449,"pper":6450,"GCCA":6451,".<hr/></td><td":6452,"CV":6453,"▁cost":6454,"▁professional":6455,"oung":6456,"><mml:msup":6457,"respon":6458,"▁colspan=\"1\">miR-":6459,"><hr/></th></tr><tr><th":6460,"▁kinase":6461,"▁general":6462,"iven":6463,"▁invas":6464,"▁align=\"char\">13":6465,"<sup><italic>":6466,"▁PE":6467,"EG":6468,"▁ins":6469,"▁colspan=\"1\">60</td><td":6470,"GGCA":6471,"▁colspan=\"1\">NA</td></tr><tr><td":6472,"▁valign=\"bottom\">+<hr/></td><td":6473,"rgan":6474,"▁colspan=\"1\">0.18":6475,"▁distribution":6476,"1.0</td><td":6477,"/P":6478,"▁~":6479,"▁count":6480,"o-":6481,"01</td></tr><tr><td":6482,"HT":6483,"</td><td>0.3":6484,"mean":6485,"▁cholesterol":6486,"▁again":6487,"idase":6488,"</italic></th></tr></thead><tbody><tr><td":6489,"active":6490,"▁h</td><td":6491,"▁income":6492,"▁concentration":6493,"▁colspan=\"1\">26.":6494,"▁align=\"center\">6</td><td":6495,"▁cyto":6496,"/<italic>":6497,"▁member":6498,"cg":6499,"ina</td><td":6500,"▁Americ":6501,"SI":6502,"▁diffic":6503,"▁colspan=\"1\">0.5</td><td":6504,"32</td></tr><tr><td":6505,"40</td></tr><tr><td":6506,"RB":6507,"108":6508,"▁align=\"center\">18":6509,"#n#<named-content":6510,"▁align=\"center\">5.":6511,"▁colspan=\"1\">29</td><td":6512,"-3.":6513,"▁healthy":6514,"▁acid</td><td":6515,"▁sus":6516,"▁rid=\"ece":6517,"▁35":6518,"▁(42.":6519,"▁colspan=\"1\">Th":6520,"</bold>#n#</td></tr><tr><td>":6521,"-year":6522,"&lt;0.001</td><td":6523,"126":6524,"▁brain":6525,"▁<italic>N</italic>":6526,"revious":6527,"ograph":6528,")</italic></td><td":6529,"eration":6530,"▁var":6531,"alle":6532,"protein":6533,"106":6534,"▁colspan=\"1\">0.95":6535,"▁ml":6536,"▁En":6537,"▁CI</th><th":6538,"name":6539,"s</bold></th><th":6540,"ance</td><td":6541,"1.1</td><td":6542,"33)</td><td":6543,"▁colspan=\"1\">0.01</td><td":6544,"Median":6545,"▁colspan=\"1\">x</td><td":6546,"▁rid=\"B4":6547,"ide</td><td":6548,"▁align=\"char\">11":6549,"pri":6550,"ife":6551,"7.1</td><td":6552,"▁facili":6553,"▁background-color:rgb(":6554,"▁middle":6555,"poral":6556,"▁rid=\"CR2":6557,",9":6558,"▁(41.":6559,"emi":6560,"----":6561,"▁β":6562,"ception":6563,"▁association":6564,"50<hr/></td><td":6565,"109":6566,"▁recommend":6567,"▁(W":6568,"3)<hr/></td><td":6569,"▁align=\"char\"><bold>":6570,"phyl":6571,"us,":6572,"-14":6573,"</td><td>46":6574,"del":6575,"▁problem":6576,"▁colspan=\"1\">Group":6577,"</td><td>36":6578,".”":6579,"idney":6580,"sible":6581,"▁align=\"char\">5.":6582,"▁align=\"left\">An":6583,"M,":6584,"▁colspan=\"1\">0.25":6585,"▁colspan=\"1\">90":6586,"124":6587,"</ext-link>#n#</td><td":6588,"▁°C":6589,"104":6590,"▁add":6591,"</xref>–":6592,"CF":6593,"ilk":6594,"</mml:mo><mml:msub":6595,"</sub></th><th":6596,"▁colspan=\"1\">None</td><td":6597,"▁(kg/m<sup>2</sup>":6598,"▁(K":6599,"▁decision":6600,"▁align=\"center\">20":6601,"▁PA":6602,"▁Median":6603,"▁colspan=\"1\">70":6604,"▁sw":6605,"▁style=\"background-color:#f":6606,"▁experience":6607,"raz":6608,"point":6609,"▁colspan=\"1\">0.97":6610,"neumonia":6611,"</td></tr><tr><td>W":6612,"▁↑":6613,"/4":6614,"–5.":6615,")#n#</td><td":6616,"0.13":6617,"▁2018":6618,"▁(&gt;":6619,"0)</td><td":6620,"▁colspan=\"1\">#n#<italic>P</italic>":6621,"a</td></tr><tr><td":6622,"75)</td><td":6623,"▁<italic>P":6624,"bacter":6625,"oint":6626,"</td><td>NR":6627,"mploy":6628,"plan":6629,"ominal":6630,"P,":6631,"__":6632,"▁colspan=\"1\"><bold>F":6633,"16.":6634,"LD":6635,"▁doc":6636,"Intervention":6637,"67)</td><td":6638,"ildren":6639,"▁adh":6640,"uv":6641,"▁promo":6642,"▁%)":6643,"▁(3)</td><td":6644,"▁phase":6645,"inc":6646,"ulin":6647,")</td><td>1.0":6648,"Chem":6649,"CN":6650,"▁treated":6651,"▁align=\"left\">23":6652,"00000000":6653,"ocyte":6654,"ATA":6655,"60</td></tr><tr><td":6656,"′′":6657,"/G":6658,"5</td><td>0.":6659,"LS":6660,"▁colspan=\"1\">0.11":6661,"▁colspan=\"1\"><bold>A":6662,"17_":6663,"edu":6664,"▁colspan=\"1\"><italic>F":6665,"26)</td><td":6666,"45</td></tr><tr><td":6667,"us</italic></td><td":6668,"▁intr":6669,"▁every":6670,"▁align=\"left\">Ch":6671,"▁style=\"background:#":6672,"porter":6673,"RF":6674,"MG":6675,"ocio":6676,"▁Control":6677,"sult":6678,"▁behavio":6679,"▁chronic":6680,"</xref>–<xref":6681,"</td><td>–</td><td>–</td><td>–</td><td>–":6682,"clusion":6683,"▁severe":6684,"Univariate":6685,"(−":6686,"▁15.":6687,"▁stim":6688,"</td><td>47":6689,"/h":6690,"auc":6691,"▁effic":6692,"▁colspan=\"1\"><italic>C":6693,"cm":6694,"▁oper":6695,"</td><td/><td":6696,"</italic>)":6697,"▁consumption":6698,"▁0</td><td":6699,"aus":6700,"▁average":6701,"▁models":6702,"▁cere":6703,"▁environment":6704,"▁onset":6705,"35</td></tr><tr><td":6706,"ustrali":6707,"000\"":6708,"2</mml:mn":6709,"rth":6710,"ospective":6711,"▁align=\"center\">#n#<bold>":6712,"E+":6713,"M_00":6714,"▁colspan=\"1\">39":6715,"rect":6716,"thetical":6717,"kness":6718,"Baseline":6719,"▁RNA":6720,"></mml:math></inline-formula></td><td":6721,")</td><td>0.00":6722,"just":6723,"29)</td><td":6724,"27)</td><td":6725,"▁colspan=\"1\">Rec":6726,"107":6727,"▁those":6728,"▁colspan=\"1\"><bold>R":6729,"eptide":6730,"Not":6731,"><sup>a":6732,"▁physician":6733,"▁also":6734,"▁[0.":6735,"16\"":6736,"28)</td><td":6737,")</bold></td></tr><tr><td":6738,"▁hand":6739,",4":6740,">#n#":6741,"▁align=\"left\">22":6742,"/H":6743,"formation":6744,"500":6745,"▁0.03":6746,"▁(45.":6747,"0.2</td><td":6748,"40)</td><td":6749,"▁multiple":6750,"▁colspan=\"1\">35</td><td":6751,"▁lea":6752,".</td></tr><tr><td>":6753,"</italic></sup":6754,"▁valign=\"bottom\">25":6755,"▁(46.":6756,"▁align=\"left\">n":6757,"igr":6758,"▁active":6759,"tional":6760,"</mml:mi></mml:msub":6761,"▁diseases":6762,"▁22":6763,"▁colspan=\"1\">Positive":6764,"ather":6765,"▁depression":6766,"36</td></tr><tr><td":6767,"Non-":6768,"ts,":6769,"</xref></sup></td><td":6770,"▁ref-type=\"ref\">20":6771,"▁.00":6772,"></bold>":6773,"▁colspan=\"1\">5.0":6774,"127":6775,"▁rowspan=\"1\">D":6776,"ispa":6777,"▁valign=\"bottom\">24":6778,"iting":6779,"▁cycle":6780,"▁colspan=\"1\">Anti":6781,"</p>#n#</td></tr><tr><td":6782,"▁left":6783,"▁align=\"left\">30":6784,"▁align=\"center\">L":6785,"18.":6786,"▁(44.":6787,"▁align=\"center\">H":6788,"▁6</td><td":6789,"▁border=\"1\"><col":6790,"▁colspan=\"1\">36</td><td":6791,"munity":6792,"10<hr/></td><td":6793,"</td><td>38":6794,"▁dos":6795,"▁past":6796,"</td><td>NA</td><td>NA":6797,"2.1</td><td":6798,"W</td><td":6799,"</td><td>37":6800,"▁%)</td></tr><tr><td>":6801,"istant":6802,"apan":6803,"√</td><td":6804,"0<hr/></td><td":6805,"mol/l":6806,"SA</td><td":6807,")</td><td>0.6":6808,"▁poly":6809,"▁following":6810,"-O":6811,"</td><td>34":6812,"▁found":6813,"▁align=\"left\">Ex":6814,"▁colspan=\"1\">≤":6815,"▁IL-":6816,"▁exercise":6817,"▁colspan=\"1\">27.":6818,"arrh":6819,"▁colspan=\"1\">As":6820,"▁service":6821,"18,":6822,"ilateral":6823,"omon":6824,"▁get":6825,"▁46":6826,"0.02":6827,"▁comparison":6828,"▁neuro":6829,"▁colspan=\"1\">29.":6830,"▁(<":6831,"16,":6832,"><p><italic>":6833,"harmac":6834,"▁0.02</td><td":6835,"▁De":6836,"3</td><td>1":6837,"▁(0·":6838,"34</td></tr><tr><td":6839,"▁colspan=\"1\">0.000</td><td":6840,"isc":6841,"▁(47.":6842,"ility":6843,"▁(39.":6844,"L.":6845,"▁$":6846,"▁pers":6847,"▁colspan=\"1\">Sex":6848,"</td><td>✓":6849,"%</td></tr></tbody></table></body></html>\n":6850,"artile":6851,"▁↓":6852,"plete":6853,"▁rowspan=\"6\">":6854,"0.15":6855,"0.14":6856,"▁colspan=\"1\">31</td><td":6857,"ines":6858,"6.0)</td><td":6859,"aving":6860,"italic><named-content":6861,"oh":6862,"▁valign=\"bottom\">5<hr/></td><td":6863,"▁task":6864,"etabo":6865,"▁align=\"center\">G":6866,"▁(14":6867,"</td><td>0.99":6868,"rd":6869,"ardiovascular":6870,"%</td><td>1":6871,"▁guide":6872,"p-value":6873,"<sub>2</sub>O":6874,"*</xref></td><td":6875,"5/":6876,"▁PR":6877,"▁position":6878,"illin":6879,"▁colspan=\"2\">S":6880,"▁syndrome":6881,"tend":6882,"><break/":6883,"CTCA":6884,"inf":6885,"revalence":6886,"▁47":6887,"1.2</td><td":6888,"▁align=\"left\">7</td><td":6889,"▁2009":6890,"▁rowspan=\"1\">T":6891,"▁align=\"right\">2":6892,"/n":6893,"</th><th>L":6894,"▁align=\"char\">0":6895,"▁colspan=\"1\">NS</td><td":6896,"▁(43.":6897,"pected":6898,"▁metastasis":6899,"▁think":6900,"38</td></tr><tr><td":6901,"</p></td></tr><tr><td>":6902,"DC":6903,"/</td><td":6904,"▁align=\"char\">14":6905,"/><td/><td/><td/><td/></tr><tr><td":6906,"a)":6907,"lege":6908,"GTTT":6909,"ye":6910,"133":6911,"▁confidence":6912,"0.3</td><td":6913,"▁colspan=\"1\">Total</td><td":6914,"▁valign=\"bottom\">I":6915,"▁colspan=\"1\">0/":6916,"duction":6917,"▁valign=\"bottom\">[<xref":6918,"80)</td><td":6919,"▁colspan=\"1\">&lt;0.0":6920,"utative":6921,"uter":6922,"um</td><td":6923,"▁colspan=\"1\">#n#<list":6924,"▁value</th><th":6925,"</italic></td></tr><tr><td>":6926,"▁demographic":6927,"-ijms":6928,"60)</td><td":6929,"&lt;0.0001":6930,"▁grad":6931,"▁align=\"left\">8</td><td":6932,"▁align=\"char\">2</td><td":6933,"</sup>#n#</xref>#n#</td><td":6934,"ignificant":6935,"▁colspan=\"1\">1.0</td><td":6936,"afety":6937,"chond":6938,"▁(18":6939,"▁ang":6940,"▁problems":6941,"225":6942,"▁.0":6943,"▁colspan=\"1\">33</td><td":6944,"ment</td><td":6945,"▁gas":6946,"70)</td><td":6947,"▁rowspan=\"2\">C":6948,"▁colspan=\"1\">95%":6949,")</td><td>0.5":6950,"1\">\\documentclass[12pt]{minimal}#n#\t\t\t\t\\usepackage{amsmath}#n#\t\t\t\t\\usepackage{wasysym}":6951,"▁reduction":6952,"0.12":6953,"▁colspan=\"11\"":6954,"▁valid":6955,"ispanic":6956,"▁colspan=\"1\">Per":6957,"tual":6958,"48</td></tr><tr><td":6959,"GS":6960,"0.03":6961,"▁align=\"left\">NA</td><td":6962,"▁analyses":6963,"▁26":6964,"▁network":6965,"▁employ":6966,"▁colspan=\"1\">0.20":6967,"DF":6968,"▁align=\"left\">10</td><td":6969,"117":6970,"oler":6971,"</sup></bold></td><td":6972,"▁align=\"left\">+":6973,"▁Pl":6974,"▁colspan=\"1\">0.23":6975,"▁align=\"center\">19":6976,"</td><td>1</td><td":6977,"▁examin":6978,"2)<hr/></td><td":6979,"▁sites":6980,"sed":6981,"</sub>,":6982,"▁colspan=\"1\">48":6983,"-t":6984,"</italic></sub":6985,"charge":6986,"▁random":6987,"▁colspan=\"1\">0.19":6988,"135":6989,"▁colspan=\"1\">0.001</td><td":6990,"</p><p>•":6991,"Per":6992,"taxon-":6993,"▁content-type=\"taxon-":6994,"▁content-type=\"taxon-name":6995,"▁align=\"left\">7.":6996,"▁sens":6997,"▁colspan=\"1\">0.24":6998,"▁align=\"center\">B":6999,"1.5</td><td":7000,"lobal":7001,"1</td><td>2":7002,"▁Positive":7003,"0.8</td><td":7004,"▁hypo":7005,"-to":7006,"▁consider":7007,"37</td></tr><tr><td":7008,"▁(4)</td><td":7009,"le=\"":7010,"atio":7011,"il</td><td":7012,"▁Model":7013,"50,":7014,"▁colspan=\"1\">&lt;.001</td><td":7015,"▁sp.":7016,"▁HR":7017,"▁Rec":7018,"itation":7019,"als":7020,"▁mL":7021,"▁error":7022,"103":7023,"orrelation":7024,"uracy":7025,"▁valign=\"bottom\">O":7026,"▁kg":7027,"</sc>":7028,"▁(48.":7029,"i,":7030,"rich":7031,"reatin":7032,"</monospace></td><td":7033,"<sup>2</sup></td><td":7034,"▁AT":7035,"▁(1.00":7036,"mediate":7037,"DP":7038,"0.4</td><td":7039,"▁ir":7040,"▁colspan=\"1\">C<sub>":7041,"46</td></tr><tr><td":7042,"atisfaction":7043,"para":7044,"▁colspan=\"1\">3.0":7045,"istory":7046,"r</td><td":7047,"▁cluster":7048,"1<xref":7049,"▁Hospital":7050,"thma":7051,"7E":7052,"DNA":7053,"i</italic>":7054,"▁against":7055,"▁align=\"left\"><bold>C":7056,"–12":7057,"bdc":7058,"1.3</td><td":7059,"ssess":7060,"ar</td><td":7061,"0.5)</td><td":7062,"44</td></tr><tr><td":7063,"ana":7064,"SR":7065,"▁rules=\"groups\"><thead><tr><th>C":7066,"47</td></tr><tr><td":7067,"ococcus":7068,"mathrm":7069,"state":7070,"▁colspan=\"1\"/></tr><tr":7071,"▁approach":7072,"▁rid=\"TN3\"><sup>":7073,"▁score</td><td":7074,"teroid":7075,"▁via":7076,"▁correlation":7077,"▁screening":7078,"tress":7079,"▁caus":7080,"▁0.05</td><td":7081,"ite</td><td":7082,"-section":7083,"</xref>]</td><td>":7084,"▁Non-":7085,"▁benef":7086,"39</td></tr><tr><td":7087,"><mml:msub><mml:mi>":7088,"hydrogen":7089,"▁(%)</th><th>":7090,"▁could":7091,"acill":7092,"▁rowspan=\"2\">#n#<italic>":7093,"30<hr/></td><td":7094,"▁(13":7095,"</bold>#n#<bold>":7096,"▁colspan=\"1\">Dis":7097,"▁setting":7098,"0.6</td><td":7099,"000</td></tr><tr><td":7100,"17.":7101,"azard":7102,"35)</td><td":7103,"▁align=\"left\">0·":7104,"</sub>#n#":7105,"<sub>3</sub></td><td":7106,"▁rece":7107,"LE":7108,"</xref></sup":7109,"<sup>∗":7110,"▁involved":7111,"▁q":7112,"▁span=\"1\"/><thead><tr><th":7113,"▁</td></tr><tr":7114,"▁colspan=\"1\">0.85":7115,"▁radi":7116,"aking":7117,"right:solid":7118,"▁colspan=\"1\">0.75":7119,"49</td></tr><tr><td":7120,"▁bone":7121,"</sup></th><th>":7122,"▁0.04":7123,"coun":7124,"▁(%)<hr/></td><td":7125,"GGGA":7126,"der</td><td":7127,"▁rowspan=\"6\"":7128,"General":7129,"enous":7130,"▁</td></tr></tbody></table></body></html>\n":7131,"odium":7132,"▁(17":7133,"▁align=\"left\"><inline-formula":7134,"▁align=\"left\">26":7135,"18_":7136,"<break/>S":7137,"▁align=\"left\">Number":7138,"IA":7139,"8.0)</td><td":7140,"r</italic>":7141,"I,":7142,"anad":7143,"▁rid=\"B3":7144,"▁valign=\"bottom\">23":7145,"amili":7146,"▁RT":7147,"2<hr/></td></tr><tr><td":7148,"angu":7149,"anth":7150,"2.0</td><td":7151,"back":7152,"ice</td><td":7153,"▁width=\"1000\"":7154,"▁0.3</td><td":7155,"ouble":7156,"▁colspan=\"1\">Qu":7157,"0.04":7158,"▁differences":7159,"▁reaction":7160,"raf":7161,"00000":7162,"42</td></tr><tr><td":7163,"▁(mg":7164,"▁(per":7165,"▁CI)</th><th>":7166,"2</td></tr></tbody></table></body></html>\n":7167,"vestig":7168,"▁prob":7169,"▁colspan=\"1\">Human":7170,").</h4><head><style>":7171,"▁colspan=\"1\">Co":7172,"eur":7173,"ospitaliz":7174,"ida":7175,"▁html><html><body><h4>Clinical":7176,"*</td></tr><tr><td>":7177,"45)</td><td":7178,"▁overall":7179,"▁because":7180,"▁target":7181,"36)</td><td":7182,"iagnosis":7183,"<break/>#n#<italic>":7184,"▁prolifer":7185,"▁<italic>S":7186,"▁(19":7187,"fenced":7188,"▁very":7189,"LL":7190,"ncbi":7191,"▁align=\"center\">7</td><td":7192,"rivate":7193,"19.":7194,"▁(16":7195,"/><td/><td/><td/><td>":7196,"_O":7197,"▁colspan=\"1\">#n#<italic>P":7198,"▁(0.3":7199,"8.5</td><td":7200,"2.2</td><td":7201,"0.17":7202,"▁23":7203,"▁rid=\"CR3":7204,"N,":7205,"▁colspan=\"1\">34</td><td":7206,"▁stretchy=\"false\">)":7207,"▁align=\"left\">J":7208,"▁sug":7209,"▁Female</td><td":7210,"30,":7211,"unc":7212,"ic</td><td":7213,"▁colspan=\"1\">0.88":7214,"</mml:mi><mml:mo":7215,"omes":7216,"aucas":7217,"▁colspan=\"1\">0.28":7218,"34)</td><td":7219,"▁testing":7220,"CE":7221,"▁align=\"center\"><bold>P":7222,"▁status</td><td":7223,"▁stretchy=\"false\">(":7224,"▁rid=\"tblfn":7225,"7.0)</td><td":7226,"▁colspan=\"1\"><break/></td></tr><tr":7227,"99</td></tr><tr><td":7228,"▁colspan=\"1\">0.27":7229,"3</bold></td><td":7230,"</td><td>39":7231,"alking":7232,"tinuous":7233,"▁colspan=\"1\">Med":7234,"▁agre":7235,"38)</td><td":7236,"2.0)</td><td":7237,"cd":7238,"▁width=\"2":7239,"▁colspan=\"1\">42":7240,"/p":7241,")</th></tr><tr><th":7242,"▁μM":7243,"118":7244,"▁16.":7245,"%)</td><td>0":7246,"▁colspan=\"1\">0.02</td><td":7247,"▁align=\"char\">15":7248,"▁valign=\"bottom\">6.":7249,"itochond":7250,"1.4</td><td":7251,"0.8)</td><td":7252,"</td><td>Ref":7253,"▁colspan=\"1\">0.90":7254,"<sup>***":7255,"▁carcinoma":7256,"65)</td><td":7257,"▁Is":7258,"44)</td><td":7259,"</td><td>X</td><td>X":7260,"▁PCR":7261,"3.1</td><td":7262,"rban":7263,"21<hr/></td><td":7264,":</td><td":7265,"▁skill":7266,"▁significantly":7267,"▁bp":7268,"oke":7269,"elial":7270,"</bold></td></tr></tbody></table></body></html>\n":7271,"▁defic":7272,"rimers":7273,"▁given":7274,"▁temperature":7275,"-E":7276,"▁category":7277,"</italic></bold>#n#":7278,"s</th><th>":7279,"▁align=\"center\">8</td><td":7280,"olecular":7281,"▁rates":7282,"▁rid=\"m":7283,"▁acute":7284,"▁(53.":7285,"CTC":7286,"/R":7287,"0.9</td><td":7288,"verall":7289,"ference":7290,"\"><":7291,"optosis":7292,"▁Male</td><td":7293,"0·":7294,"43</td></tr><tr><td":7295,"(<italic>n</italic>":7296,"style:":7297,"▁transcription":7298,"lobin":7299,"</td><td>32":7300,"▁align=\"left\">28":7301,"trop":7302,"▁colspan=\"1\">3</td></tr><tr><td":7303,"iop":7304,"d.":7305,"▁transport":7306,"o,":7307,"phen":7308,"▁char=\"×":7309,"-18":7310,"inition":7311,"▁colspan=\"1\">46":7312,"Time":7313,"▁21":7314,"ydro":7315,"▁her":7316,"▁colspan=\"1\">Sub":7317,"▁style=\"background-color:#B":7318,"▁colspan=\"1\">0.26":7319,"▁cy":7320,"▁0.12":7321,"</bold>#n#<break/>":7322,"</td></tr><tr><td><italic>":7323,"▁align=\"left\">Com":7324,"▁valign=\"bottom\">Yes":7325,"df":7326,"▁49":7327,"▁density":7328,"0.7</td><td":7329,"ks":7330,"▁moder":7331,"ders":7332,"<sup>f":7333,"15\">":7334,"99)</td><td":7335,"istration":7336,"ssociation":7337,")</td><td>9":7338,"struc":7339,"119":7340,"D,":7341,"▁ul":7342,"▁muscle":7343,"plas":7344,"ystolic":7345,"▁colspan=\"1\">+</td></tr><tr><td":7346,"</td><td>33":7347,"8.0</td><td":7348,"▁27":7349,"/></tr><tr><td/><td":7350,"G,":7351,"▁10</td><td":7352,"euro":7353,"ij":7354,"anding":7355,"▁(51.":7356,"PCR":7357,"▁(V":7358,"▁A</td><td":7359,"</sup></td></tr></tbody></table></body></html>\n":7360,"ross-section":7361,"-note-0003\">":7362,"▁injury":7363,"▁costs":7364,"VID":7365,"39)</td><td":7366,"8.1</td><td":7367,"species\">":7368,"▁survey":7369,"ollow-up":7370,"▁align=\"center\"><bold>S":7371,"▁affec":7372,"▁same":7373,"</td><td>&gt;":7374,"▁(66.":7375,"Education":7376,"▁html><html><body><h4>Results":7377,"▁conditions":7378,"▁characteristic":7379,"▁valign=\"bottom\">22":7380,"▁align=\"char\">6.":7381,"</td></tr><tr><th":7382,"-re":7383,"▁colspan=\"1\">0.78":7384,"▁rs":7385,"em\"/":7386,"▁targe":7387,"rude":7388,"▁colspan=\"1\">OR":7389,"▁colspan=\"1\">44":7390,"▁(5)</td><td":7391,"everse":7392,"▁such":7393,"CACA":7394,"▁production":7395,"2.3</td><td":7396,"▁align=\"center\">10</td><td":7397,"▁colspan=\"1\">S</td><td":7398,"0.18":7399,"17\"":7400,"urn":7401,"1</td><td>4":7402,"▁align=\"center\">6.":7403,"types":7404,"BM":7405,"</td><td>Not":7406,"</bold><break/>":7407,"24,":7408,"▁rid=\"B6":7409,"3.5</td><td":7410,"▁point":7411,"#n#\\":7412,"▁colspan=\"1\">43":7413,"</td><td>11.":7414,"▁colspan=\"1\">Normal":7415,"CTGA":7416,"▁he":7417,"▁solid;":7418,"14\">":7419,"▁align=\"left\">27":7420,"UT":7421,"▁students":7422,"ocytes":7423,"GCTT":7424,"▁4.0":7425,"Age,":7426,"▁(52.":7427,"▁valign=\"bottom\"><bold>S":7428,"▁unit":7429,"</xref>#n#":7430,"▁types":7431,"4.1</td><td":7432,"</td><td>1,":7433,"▁being":7434,"</td><td>44":7435,"</td><td>−1.":7436,"plain":7437,"dents":7438,"37)</td><td":7439,")/":7440,"</td><td>0</td><td>0</td><td>0</td><td>0":7441,"▁colspan=\"1\">1/":7442,"▁fib":7443,"▁0.1":7444,"rr":7445,"▁small":7446,"240":7447,"ers,":7448,"▁metabolism":7449,"▁sleep":7450,"MN":7451,"▁fil":7452,"ted</td><td":7453,"is</td><td":7454,"hromos":7455,"transferase":7456,"▁colspan=\"1\">199":7457,"_c":7458,"GGAT":7459,"▁adjusted":7460,"▁IL":7461,"138":7462,"▁bu":7463,"48)</td><td":7464,"<sup>c</sup>#n#":7465,"<break/>-":7466,"▁Inf":7467,"▁border-style:":7468,"</td><td>0</td><td>1":7469,"4\"><sup>":7470,"</td><td>49":7471,"acto":7472,"atter":7473,"BT":7474,"▁Study":7475,"side":7476,"▁Rep":7477,"tured":7478,"▁colspan=\"1\">0.96":7479,"102":7480,"▁α":7481,"▁colspan=\"1\">Trans":7482,"%;\"":7483,"indow":7484,"DH":7485,"▁skin":7486,"0.9)</td><td":7487,"▁init":7488,"emb":7489,"▁colspan=\"1\">0.03</td><td":7490,"entric":7491,"uma":7492,"▁(57.":7493,"▁At":7494,"▁colspan=\"1\">45</td><td":7495,"▁Sub":7496,"***</td></tr><tr><td":7497,"▁colspan=\"1\">0.33":7498,"oto":7499,"46)</td><td":7500,"log":7501,"▁four":7502,"4.5</td><td":7503,"95</td></tr><tr><td":7504,"1A":7505,"▁its":7506,"23,":7507,"/><td/><td/><td/><td/><td/></tr><tr><td":7508,"▁weeks</td><td":7509,"lim":7510,"simple":7511,"ifference":7512,"iment":7513,"▁content-type=\"species\">":7514,"▁(54.":7515,"▁tests":7516,"0.6)</td><td":7517,"▁colspan=\"1\">48</td><td":7518,"25,":7519,"Protein":7520,"oy":7521,"Is":7522,"▁(<bold>":7523,"▁colspan=\"1\"><bold>L":7524,"stitution":7525,"8.3</td><td":7526,"CTGT":7527,"label>":7528,"▁colspan=\"1\">Col":7529,"</td><td>Un":7530,"▁beta":7531,"▁content-type=\"genus\">":7532,"MF":7533,"▁rowspan=\"1\">N":7534,"(9":7535,"▁rules=\"groups\"><thead><tr><th>S":7536,"1.7</td><td":7537,"12<hr/></td><td":7538,"▁colspan=\"1\">47":7539,"▁mmol/L":7540,"▁3,":7541,"AN":7542,"UU":7543,"95)</td><td":7544,"▁secondary":7545,"▁selected":7546,"</td><td>0.2":7547,"</label":7548,"▁colspan=\"1\">38</td><td":7549,"valu":7550,"▁(0%)</td><td":7551,"▁alpha":7552,"1)</td></tr><tr><td>":7553,"▁0.5</td><td":7554,"11<hr/></td><td":7555,"-value</th></tr></thead><tbody><tr><td":7556,"</td><td>Yes</td><td>Yes":7557,"▁CI)</td><td":7558,"47)</td><td":7559,"▁oral":7560,"HE":7561,"▁Number":7562,"0.20":7563,"▁role":7564,"▁rowspan=\"1\">R":7565,"elative":7566,"</italic><hr/></td></tr><tr><td":7567,"▁across":7568,"></mml:mrow></mml:math><inline-graphic":7569,"▁(%)</bold></th><th":7570,"ountry":7571,"▁evaluation":7572,"b,":7573,"litus":7574,"▁colspan=\"1\">0.80":7575,"▁event":7576,"▁align=\"center\">+":7577,"▁colspan=\"9\"><hr/></td></tr><tr><td":7578,"simple\"":7579,"-2</td><td":7580,"tocol":7581,"69)</td><td":7582,"▁where":7583,"▁virus":7584,"▁controls":7585,"▁reduced":7586,"▁0.03</td><td":7587,"ances":7588,"or</td><td":7589,"▁viv":7590,"5%)</td><td":7591,"</italic>#n#<sup>":7592,"▁colspan=\"1\">Pl":7593,"</sub>O":7594,"▁0.15":7595,"▁cop":7596,"amm":7597,"/g":7598,"▁rules=\"groups\"><thead><tr><th>Variable":7599,"▁PT":7600,"</ext-link></td></tr><tr><td":7601,"22,":7602,"Pl":7603,"▁style=\"background-color:#C":7604,"▁colspan=\"1\">0.65":7605,"49)</td><td":7606,"oplas":7607,"trial":7608,"2.9</td><td":7609,"▁prevalence":7610,"▁valign=\"bottom\">6<hr/></td><td":7611,"5.1</td><td":7612,"Parameter":7613,"▁Cancer":7614,"5.5</td><td":7615,"</td><td>1.5":7616,"▁mmHg":7617,"tg":7618,"BV":7619,"d.</td><td":7620,"▁rowspan=\"1\"><italic>":7621,"▁Index":7622,"</td><td>n.":7623,"▁mechan":7624,"▁colspan=\"1\">‐":7625,"146":7626,"asic":7627,"85)</td><td":7628,"an,":7629,"▁valign=\"top\"><th>":7630,"▁culture":7631,"▁stroke":7632,"▁$$\\end{document}</tex-math><mml:math":7633,"▁colspan=\"1\">Right":7634,"1</td><td>5":7635,"▁vaccin":7636,"▁colspan=\"1\">0.22":7637,"▁7</td><td":7638,"▁rid=\"B1":7639,"bdc0\"":7640,"esion":7641,"123":7642,"><p><bold>":7643,"▁hydro":7644,"▁valign=\"bottom\">26":7645,"▁style=\"background-color:#d":7646,"▁colspan=\"1\">p.":7647,"riend":7648,"▁colspan=\"1\">0.37":7649,"▁discus":7650,"oft":7651,"(0.7":7652,"sequ":7653,"EE":7654,"▁colspan=\"3\"><bold>":7655,"▁colspan=\"1\">1:":7656,"▁valign=\"bottom\">7.":7657,"▁Patients":7658,"none;border-":7659,"▁1:":7660,"▁valign=\"bottom\">-<hr/></td></tr><tr><td":7661,"8.2</td><td":7662,"G</td></tr><tr><td":7663,"▁then":7664,")*</td><td":7665,"3.0</td><td":7666,"148":7667,"▁colspan=\"1\">0.1</td><td":7668,"▁illness":7669,"▁xlink:href=\"https":7670,"▁record":7671,"▁style=\"color:#":7672,"bdominal":7673,"1.0)</td><td":7674,"▁wor":7675,"M_":7676,"-PCR":7677,"▁Score":7678,"<underline>":7679,"▁colspan=\"1\">0.67":7680,"</xref>),":7681,"nd</td><td":7682,"bial":7683,"▁*</td><td":7684,"><mml:msubsup":7685,"times":7686,"ategory":7687,"▁source":7688,"0.33":7689,"16\">":7690,"</sup></th></tr></thead><tbody><tr><td":7691,"▁align=\"char\">16":7692,"employ":7693,"▁colspan=\"1\">42</td><td":7694,"▁29":7695,"145":7696,"18\"":7697,"7.0</td><td":7698,"90)</td><td":7699,"▁colspan=\"1\">0.68":7700,".gov":7701,"kele":7702,"▁colspan=\"1\">0.55":7703,"]</td><td>0.":7704,"▁align=\"left\">Y":7705,"▁colspan=\"1\">GA":7706,"▁members":7707,"3.2</td><td":7708,"139":7709,"(0.8":7710,"cribed":7711,"ld":7712,"▁pref":7713,"</td><td>NS":7714,"ically":7715,"▁(4.0":7716,"4.3</td><td":7717,"1</th><th":7718,"▁flow":7719,"▁back":7720,"ortic":7721,"▁colspan=\"1\">99":7722,"4.0</td><td":7723,"2:":7724,"24\"":7725,"priate":7726,"▁align=\"left\">m":7727,"ergency":7728,"▁align=\"char\">20":7729,"▁colspan=\"1\">0.35":7730,"etrospective":7731,"▁amp":7732,"▁containing":7733,"3<hr/></td></tr><tr><td":7734,"▁colspan=\"1\">37</td><td":7735,"▁(0.98":7736,"▁(mg/dl":7737,"anol":7738,"atur":7739,"4)<hr/></td><td":7740,"le</td><td":7741,"▁95":7742,"▁colspan=\"2\">M":7743,"▁(55.":7744,"▁kn":7745,"▁With":7746,"137":7747,"▁hours":7748,"▁rid=\"CIT00":7749,"▁rowspan=\"1\">F":7750,"▁align=\"left\">&gt;":7751,"▁colspan=\"1\"><italic>T":7752,"less":7753,"hole":7754,"▁energy":7755,"_at</td><td":7756,"▁align=\"center\">-</td></tr><tr><td":7757,"▁(≥":7758,"▁pan":7759,"▁Value":7760,"2.4</td><td":7761,"▁44":7762,"▁suc":7763,"encing":7764,"/w":7765,"▁colspan=\"1\">0.38":7766,"▁early":7767,"▁deviation":7768,"ifferent":7769,"overn":7770,"UR":7771,"bral":7772,"▁gre":7773,"▁style=\"background-color:#bb":7774,"▁1.7":7775,"MO":7776,"▁relative":7777,"osynth":7778,"136":7779,"▁0.10":7780,"▁polym":7781,"arr":7782,"-17":7783,"▁colspan=\"1\">0.70":7784,"pal":7785,"8.6</td><td":7786,"ulatory":7787,"opul":7788,"ocard":7789,"▁measured":7790,"0.27":7791,"▁2.5":7792,"ogenesis":7793,"\">http":7794,"</sup></xref></bold":7795,"1.8</td><td":7796,"<sup>a</sup></td></tr><tr><td":7797,"</td><td>42":7798,"25\"":7799,"▁2008":7800,")</td><td>10":7801,"SO":7802,"ota":7803,"ham":7804,"roll":7805,"lamm":7806,"▁collection":7807,"betic":7808,"0.7)</td><td":7809,"▁prec":7810,"1.6</td><td":7811,"▁team":7812,"▁colspan=\"1\">0.77":7813,"▁dehydrogen":7814,"▁colspan=\"1\">0.30":7815,"ponse":7816,"▁vitro":7817,"omonas":7818,"17\">":7819,"−</mml:mo><mml:mn>":7820,"▁adults":7821,"PO":7822,"▁align=\"right\">0.0":7823,"▁contact":7824,"▁rad":7825,"8.9</td><td":7826,"tility":7827,"inary":7828,"2.6</td><td":7829,"irl":7830,"▁(days":7831,"–2.0":7832,"▁0.4</td><td":7833,"▁sequences":7834,"nual":7835,"emoglobin":7836,"▁valign=\"bottom\">27":7837,"equence":7838,"▁rid=\"cam":7839,"▁colspan=\"1\">39</td><td":7840,"0.19":7841,"▁colspan=\"1\">N/A":7842,"▁invasion":7843,"s</bold></td><td":7844,"s;":7845,"▁reference":7846,"▁valign=\"bottom\">28":7847,"actors":7848,"▁eat":7849,"▁feel":7850,"▁colspan=\"1\">55":7851,"▁tool":7852,"itoring":7853,"▁0,":7854,"▁membrane":7855,"▁colspan=\"1\">0.36":7856,"ylation":7857,"oding":7858,"<break/>(<italic>n</italic>":7859,"▁36":7860,"</bold>#n#<sup><bold>":7861,")</bold>#n#":7862,"e-0":7863,"7.8</td><td":7864,"1*":7865,"getable":7866,"posed":7867,"</td><td>•":7868,"9.0)</td><td":7869,"</td><td>12.":7870,"▁proper":7871,"8.8</td><td":7872,"▁super":7873,"4.2</td><td":7874,"U</td><td":7875,"ken":7876,"F0":7877,"255,255,":7878,"▁accent":7879,"▁plasma":7880,"/6":7881,"/D":7882,"▁own":7883,"▁(6)</td><td":7884,"▁mathvariant=\"bold":7885,"</sub></td><td>":7886,"▁(SE":7887,"▁colspan=\"1\">0.29":7888,"▁cortex":7889,"▁C</td><td":7890,"▁colspan=\"1\">CT":7891,"▁style=\"background-color:#D9D9":7892,"▁colspan=\"1\"><italic>R":7893,"4</bold></td><td":7894,"▁vari":7895,"urses":7896,"jpg\"":7897,"▁dys":7898,"pir":7899,"7.3</td><td":7900,"5)\"":7901,"▁colspan=\"1\">0.87":7902,"ache":7903,"▁coefficient":7904,"3</td></tr></tbody></table></body></html>\n":7905,"osa":7906,"23\"":7907,"▁GP":7908,"C</td></tr><tr><td":7909,"ount":7910,"▁align=\"left\">Con":7911,"▁1.8":7912,"▁material":7913,"▁rid=\"tfn_00":7914,"toperative":7915,"L,":7916,"▁colspan=\"1\">β":7917,"19\"":7918,"▁colspan=\"1\"><bold>0.00":7919,">#n#</td></tr><tr><td":7920,"▁valign=\"top\"><td/><td>":7921,"▁CR":7922,"▁align=\"center\">1,":7923,"ycin":7924,"3.0)</td><td":7925,"VD":7926,"iother":7927,"LI":7928,"▁colspan=\"1\">36.":7929,"40<hr/></td><td":7930,"enia":7931,"3.8</td><td":7932,"omer":7933,"20_":7934,"9.1</td><td":7935,"</mml:mi></mml:mrow></mml:msub":7936,"GGAA":7937,"</bold><sup>#n#<bold>":7938,"16_":7939,"▁0.13":7940,"FP":7941,"></mml:mover":7942,"▁local":7943,"lished":7944,"4.4</td><td":7945,"<break/>R":7946,"9</sup>":7947,"▁valign=\"bottom\"><tr":7948,"</bold>.":7949,"▁colspan=\"1\">Reference</td><td":7950,"▁m</td><td":7951,"-0.9":7952,"▁age,":7953,"▁frequ":7954,"abit":7955,"bes":7956,"▁side":7957,"▁colspan=\"1\">49":7958,"aceae</td><td":7959,"ipheral":7960,"CCCA":7961,"]</td></tr><tr><td>":7962,"level":7963,"▁0.14":7964,"enic":7965,"easure":7966,"bold><underline>":7967,"▁42":7968,"▁percentage":7969,"▁(56.":7970,"20<hr/></td><td":7971,"ember":7972,"255)\"":7973,"0.23":7974,"▁align=\"left\">9</td><td":7975,"6)<hr/></td><td":7976,"titis":7977,"▁determin":7978,"▁colspan=\"1\">0.69":7979,"400":7980,"</td><td>.0":7981,"ists":7982,"▁(58.":7983,"DI":7984,"hydr":7985,"7.2</td><td":7986,"GAGA":7987,"vis":7988,"▁pur":7989,"255,255,255)\"":7990,"rine":7991,"ocarcin":7992,"urop":7993,"▁rid=\"B7":7994,"9.5</td><td":7995,"auto":7996,"·5":7997,"5.2</td><td":7998,"▁important":7999,"put":8000,"ME":8001,"▁8</td><td":8002,"ulf":8003,"vid":8004,"▁received":8005,"▁down":8006,")</td></tr><tr><td/><td":8007,"-α":8008,"GR":8009,"▁self":8010,"emical":8011,"DL-C":8012,"▁<inline-formula":8013,"46,":8014,"levant":8015,"▁regulation":8016,"3.6</td><td":8017,"7.4</td><td":8018,"▁Primary":8019,"▁span=\"1\"/></colgroup><thead":8020,"cine":8021,"irus":8022,"8.4</td><td":8023,"</mml:mn></mml:mrow></mml:math><inline-graphic":8024,"▁colspan=\"1\">0.89":8025,"elling":8026,"▁colspan=\"1\">Non":8027,"▁spa":8028,"F1":8029,"2.7</td><td":8030,"▁II</td><td":8031,"</th><th>B":8032,"▁colspan=\"1\">#n#<bold><italic>":8033,"</italic>#n#</th></tr></thead><tbody><tr><td":8034,"-induced":8035,"▁colspan=\"1\">6.0":8036,"lag":8037,"</td><td>70":8038,"▁rowspan=\"1\">#n#<break/>":8039,"</xref>]</td></tr></tbody></table></body></html>\n":8040,"▁align=\"left\">−</td><td":8041,"udes":8042,"</td></tr><tr><td>O":8043,"-bib-0":8044,"▁colspan=\"1\"><bold>N":8045,"▁colspan=\"1\">0.48":8046,"</td><td>2</td><td>2":8047,"▁chain":8048,"A</italic>":8049,"ports":8050,"#n#<italic>P":8051,"▁characteristics</h4><head><style>":8052,"▁patients</td><td":8053,"><italic>P":8054,"▁location":8055,"▁nam":8056,")</td><td>3.":8057,"onary":8058,"1.9</td><td":8059,"itin":8060,"▁(10)</td><td":8061,"sw":8062,"era":8063,"otide":8064,"2.8</td><td":8065,"▁lob":8066,"▁strength":8067,"ies</td><td":8068,"▁0.06":8069,"29,":8070,"0.11":8071,"▁aged":8072,"0.24":8073,"▁p.":8074,"ium</td><td":8075,"ordin":8076,"▁(95%CI":8077,"fied":8078,"▁visits":8079,"mide":8080,"▁colspan=\"1\">4</td></tr><tr><td":8081,"19\">":8082,"><italic>n</italic>":8083,"0.28":8084,"▁Reg":8085,"▁points":8086,"▁(49.":8087,"▁align=\"char\">3</td><td":8088,"▁(month":8089,"GGGT":8090,"▁(1–":8091,"60<hr/></td><td":8092,"–0.6":8093,"▁Scale":8094,"▁colspan=\"1\">0.45":8095,"d,":8096,"</td><td>x":8097,"18\">":8098,"▁colspan=\"1\">Model":8099,"▁colspan=\"1\">h":8100,"▁Sup":8101,"flow":8102,"▁window":8103,"▁colspan=\"1\">0.47":8104,"treatment":8105,"▁valign=\"bottom\">100":8106,".)":8107,"7.9</td><td":8108,"▁<italic>M":8109,"▁0.11":8110,"<sup>a,":8111,"eff":8112,"annel":8113,"base":8114,"/-":8115,"▁align=\"left\">21":8116,"▁group</td><td":8117,"▁colspan=\"1\">0.05</td><td":8118,"▁common":8119,"▁resid":8120,"▁colspan=\"1\">0.66":8121,"4<hr/></td></tr><tr><td":8122,"2_":8123,"▁(1.5":8124,"gram":8125,"▁(0.97":8126,"▁align=\"left\"><bold>M":8127,"▁metabolic":8128,"lucos":8129,"40,":8130,"▁0.001</td><td>":8131,"23\">":8132,"emia</td><td":8133,"</td><td>80":8134,"–6.":8135,"</td><td>43":8136,"▁colspan=\"1\">0.86":8137,"▁1.6":8138,"▁colspan=\"1\">4.0":8139,"▁colspan=\"1\">0.58":8140,"</td><td>3.0":8141,"iological":8142,"]</th><th":8143,"1(":8144,"▁injection":8145,"asting":8146,"7.6</td><td":8147,"155":8148,"▁ele":8149,"▁enh":8150,"7)<hr/></td><td":8151,"0.26":8152,"▁block":8153,"-09":8154,"▁sexual":8155,"▁al.</italic>":8156,"▁colspan=\"1\">Cell":8157,"xim":8158,"%)</td><td/></tr><tr><td>":8159,"8)<hr/></td><td":8160,"▁Sur":8161,"▁rowspan=\"2\">P":8162,"29<hr/></td><td":8163,"▁second":8164,"ators":8165,"ogene":8166,"si":8167,"At":8168,"▁free":8169,"▁experi":8170,"▁proportion":8171,"5.3</td><td":8172,"l</td><td":8173,"></td></tr><tr><td>":8174,"▁align=\"center\">9</td><td":8175,"▁(11":8176,"ipp":8177,"ondition":8178,"▁stay":8179,"25\">":8180,"▁ti":8181,"▁hypertension":8182,"trong":8183,"▁component":8184,"-note-0002\">":8185,"edic":8186,"5.7</td><td":8187,"F-":8188,"D9;\"":8189,"▁align=\"center\">25":8190,"</td><td>–</td></tr><tr><td>":8191,"▁(0.2":8192,"▁major":8193,"▁questionnaire":8194,"▁align=\"left\">0</td></tr><tr><td":8195,"▁:":8196,"▁orig":8197,"ester":8198,"-note-0004\">":8199,"tone":8200,"▁hepa":8201,"▁rowspan=\"1\">H":8202,"▁SNP":8203,"▁TB":8204,"▁0.16":8205,"0.95":8206,"umbers":8207,"▁colspan=\"1\"><list":8208,"1</mml:mn":8209,"40\"":8210,"▁logistic":8211,"▁align=\"center\">24":8212,"▁nec":8213,"▁respiratory":8214,"▁CA":8215,"ate,":8216,"▁pneumonia":8217,"134":8218,"E,":8219,"</td><td>21":8220,"3F":8221,"▁underst":8222,"ci":8223,"alization":8224,"ners":8225,"5.6</td><td":8226,"Estim":8227,"▁0.04</td><td":8228,"color:":8229,"D</td></tr><tr><td":8230,"▁xlink:href=\"http://www.":8231,"▁eng":8232,"▁colspan=\"1\">ST":8233,"▁(%)</td></tr><tr><td>":8234,"k</td><td":8235,"p><p>":8236,"▁off":8237,"▁colspan=\"1\">Gene":8238,"▁activity</td><td":8239,"ephr":8240,"▁degree":8241,"▁patients</h4><head><style>":8242,"▁colspan=\"1\">41":8243,"atig":8244,"▁renal":8245,"▁ref-type=\"bibr\">19":8246,"▁mellitus":8247,".</td></tr></tbody></table></body></html>\n":8248,"etasta":8249,"plac":8250,"nee":8251,"-1,":8252,"light":8253,"war":8254,"▁html><html><body><h4>Mean":8255,"▁(5.0":8256,"1000":8257,"▁colspan=\"1\">0.04</td><td":8258,"▁colspan=\"1\">0.79":8259,"Class":8260,"▁centr":8261,"7.7</td><td":8262,"<break/>N":8263,"Women":8264,"15<hr/></td><td":8265,"8.7</td><td":8266,"▁dem":8267,"▁colspan=\"1\">#":8268,"▁(IQR)</td><td":8269,"</td><td>65":8270,"-inf":8271,"</bold></italic>":8272,"KT":8273,"olute":8274,"▁align=\"char\">17":8275,"▁colspan=\"2\">P":8276,"ush":8277,"13<hr/></td><td":8278,"▁Re":8279,"▁style=\"background-color:":8280,"·7":8281,"▁poor":8282,"-ass":8283,")</td></tr><tr><td>S":8284,"▁methods":8285,"%)</td><td>2":8286,"partment":8287,"▁colspan=\"1\">HR":8288,"NM_00":8289,"32<hr/></td><td":8290,"Fig":8291,"▁colspan=\"1\">&lt;.001</td></tr><tr><td":8292,"4.6</td><td":8293,"▁colspan=\"1\">44</td><td":8294,"atrix":8295,"▁ICU":8296,"▁cellpadding=\"5\"><thead><tr><th":8297,"▁align=\"left\">200":8298,"▁colspan=\"1\">4,":8299,"9.2</td><td":8300,"6.5</td><td":8301,"▁compound":8302,"▁provided":8303,"▁colspan=\"1\">I</td><td":8304,"</th><th>Mean":8305,"-w":8306,"▁placebo":8307,"▁valign=\"bottom\">1,":8308,"▁width=\"1*\"/><col":8309,"▁colspan=\"1\">#n#<bold>S":8310,"</italic>:":8311,"anguage":8312,"1.00</td><td":8313,"<sup>d</sup></td><td":8314,"umour":8315,"=\"true":8316,"▁colspan=\"1\">95":8317,"trep":8318,"▁align=\"left\">Ad":8319,"</th><th>95%":8320,"aff":8321,"14<hr/></td><td":8322,"▁har":8323,"6.1</td><td":8324,"▁integr":8325,"tase":8326,"NN":8327,"-ac":8328,"·8":8329,"▁structure":8330,"igns":8331,"(95%":8332,"van":8333,"pli":8334,"</italic></bold>#n#</td><td":8335,"10<sup>−":8336,"–15":8337,"▁colspan=\"1\">0.46":8338,"▁colspan=\"1\">56":8339,"-binding":8340,"▁cognitive":8341,"reshold":8342,"ird":8343,"32,":8344,"tative":8345,"Exper":8346,"▁list-type=\"simple\"":8347,"ursing":8348,"0.06":8349,"▁surface":8350,"▁0.75pt;":8351,")</p></td><td":8352,"4.7</td><td":8353,"▁colspan=\"1\">41</td><td":8354,"24\">":8355,"▁(0.95":8356,"1fn":8357,"▁</sub>":8358,"▁SD</td><td":8359,"▁colspan=\"1\">0.2</td><td":8360,"▁rid=\"B12":8361,"50</sub>":8362,"▁valign=\"bottom\"><bold><italic>":8363,"▁colspan=\"1\">H</td><td":8364,"uring":8365,"**<hr/></td><td":8366,"64</td></tr><tr><td":8367,"▁xlink:href=\"f":8368,"▁style=\"background-color:#bbbdc0\"":8369,"▁colspan=\"1\">54":8370,"(0":8371,"▁enzym":8372,"colog":8373,"▁(8)</td><td":8374,"9.0</td><td":8375,"ervical":8376,"▁learning":8377,"Q</td><td":8378,"g/kg":8379,"nih":8380,"▁these":8381,"▁On":8382,"▁dev":8383,"4.9</td><td":8384,"15_":8385,"echni":8386,"▁ref-type=\"bibr\">S":8387,"s.</td></tr><tr><td":8388,"▁colspan=\"1\">f":8389,"212":8390,"▁classification":8391,"▁techn":8392,"</td><td>Low":8393,"▁colspan=\"1\">0.57":8394,"▁max":8395,"criptive":8396,"▁valign=\"bottom\">X":8397,"lasma":8398,"BFBFBF":8399,"149":8400,"▁<sup>a</sup></td><td":8401,"▁2007":8402,"/week":8403,"▁align=\"center\">23":8404,"▁colspan=\"1\">r":8405,"2009":8406,"</italic></sup>#n#":8407,"▁plant":8408,"oprotein":8409,"4.8</td><td":8410,"3.4</td><td":8411,"&lt;0.000":8412,"FF;\"":8413,"ones":8414,"▁drugs":8415,"▁meet":8416,"esh":8417,"elow":8418,"▁biom":8419,"reatinine":8420,"east":8421,"▁(61.":8422,"4</td><td>1":8423,"bit":8424,"ickness":8425,"▁valign=\"bottom\">V":8426,"▁animal":8427,"ulate":8428,"</td><td>Ch":8429,"nih.gov":8430,"p,":8431,"▁colspan=\"1\">46</td><td":8432,"MSE":8433,"·9":8434,"26,":8435,"oxid":8436,"2;":8437,"▁similar":8438,"3.9</td><td":8439,"▁html><html><body><h4>O":8440,"▁study</td><td":8441,"1–1.":8442,"ticles":8443,"▁colspan=\"1\"><bold>H":8444,"erve":8445,"uthor":8446,"▁colspan=\"1\">0,":8447,"aily":8448,"▁colspan=\"1\">0.50":8449,"▁colspan=\"1\">52":8450,"▁color:#auto":8451,"▁color:#auto;\"":8452,"▁colspan=\"1\">64</td><td":8453,"6.0</td><td":8454,"–100":8455,"itochondrial":8456,"▁shar":8457,"</named-content>#n#<named-content":8458,"><label>":8459,"16<hr/></td><td":8460,"left;":8461,"▁colspan=\"1\">AT":8462,"n</italic></bold>":8463,"▁colspan=\"1\">0.40":8464,"b</sup></xref></td><td":8465,"tatis":8466,"irs":8467,"1\">*</xref></td><td":8468,"%)</td></tr><tr":8469,"▁Cor":8470,"▁state":8471,"</td><td>n":8472,"▁colspan=\"1\">0.76":8473,"▁2019":8474,"▁html><html><body><h4>In":8475,"emorrh":8476,"26\">":8477,"▁expressed":8478,"3.7</td><td":8479,"▁valign=\"bottom\"><td":8480,"&lt;.00":8481,"<sup><bold>":8482,"27,":8483,"▁improvement":8484,"28,":8485,"·6":8486,"ait":8487,"▁colspan=\"1\">Type":8488,"▁activation":8489,"thrit":8490,"-type":8491,"SV":8492,"iles":8493,"▁0.17":8494,";text-align:":8495,"thnicity":8496,"-i00":8497,"4</td></tr></tbody></table></body></html>\n":8498,"▁match":8499,"▁GT":8500,"</named-content></":8501,"▁(75":8502,"▁colspan=\"1\">53":8503,"FC":8504,"147":8505,"6.2</td><td":8506,"ectomy":8507,"day":8508,"orec":8509,"▁#n#<italic>":8510,"apa":8511,".nih.gov":8512,"·4":8513,"obi":8514,"▁focus":8515,"><mml:mrow><mml:mi":8516,"▁colspan=\"1\">—</td></tr><tr><td":8517,"▁impact":8518,"▁facility":8519,"▁transfer":8520,"KD":8521,"-</mml:mo><mml:mn>":8522,"-dependent":8523,"%)</td><td>1":8524,"▁align=\"left\">Par":8525,"▁anxiety":8526,"▁37":8527,"ibos":8528,"▁colspan=\"1\">Male":8529,"30\">":8530,"▁colspan=\"1\"><bold>B":8531,"156":8532,"></xref":8533,"5.4</td><td":8534,"_J":8535,"▁transporter":8536,"(m":8537,"▁disorders":8538,"▁Data":8539,"9.3</td><td":8540,"tes</td><td":8541,"▁years,":8542,"lop":8543,"168":8544,"ecreased":8545,"▁width=\"80":8546,"ective":8547,":</bold>":8548,"66)</td><td":8549,"</td><td>75":8550,"▁detected":8551,"HI":8552,"</mml:mi><mml:mi":8553,"▁align=\"left\">High":8554,"▁colspan=\"1\">80</td><td":8555,"(2.":8556,"28\"":8557,"▁colspan=\"1\">Tumor":8558,"▁colspan=\"1\">Non-":8559,"▁required":8560,"ated</td><td":8561,"toma":8562,"▁circum":8563,"▁colspan=\"1\">1.3":8564,"0.22":8565,"unctional":8566,"▁(100.0":8567,"1\"><sup>a":8568,"▁colspan=\"1\"><italic>B":8569,"▁colspan=\"10\">":8570,"▁Trans":8571,"▁colspan=\"1\">G</td><td":8572,"▁Ar":8573,"ology</td><td":8574,"▁diameter":8575,"▁cho":8576,"6.3</td><td":8577,"ck":8578,"2A":8579,"▁colspan=\"1\">65":8580,"9)<hr/></td><td":8581,"CA</td><td":8582,"</underline></td><td":8583,"▁align=\"center\"/></tr><tr><td>":8584,"▁align=\"left\">%":8585,"27\">":8586,"</sup>)</td><td":8587,"5.8</td><td":8588,"▁colspan=\"1\">57":8589,"▁colspan=\"1\">0.39":8590,"▁mRNA":8591,"0.50":8592,"-an":8593,"217":8594,"▁Type":8595,"▁[1.":8596,"*</xref>#n#</td><td":8597,"ulator":8598,"enotype":8599,"▁(7)</td><td":8600,"9.4</td><td":8601,"<sup>c</sup>#n#</td><td":8602,"▁proteins":8603,"asing":8604,"60,":8605,"phal":8606,"en,":8607,"0.35":8608,"▁(80":8609,"xygen":8610,"▁situ":8611,"▁individuals":8612,"pin":8613,"▁align=\"right\">3":8614,"nlm.nih.gov":8615,"Weight":8616,"a</xref>#n#</td><td":8617,"▁colspan=\"1\">43</td><td":8618,"va":8619,"pect":8620,"</td><td/></tr><tr><td>":8621,"▁align=\"left\">33":8622,"ediatric":8623,"db":8624,"26\"":8625,"▁colspan=\"1\">58":8626,"(0.6":8627,"▁align=\"left\">12</td><td":8628,"%),":8629,"▁yr":8630,"antit":8631,"▁colspan=\"1\">0.001</td></tr><tr><td":8632,"▁(0.96":8633,"▁align=\"left\"><bold>D":8634,".nlm.nih.gov":8635,"45,":8636,"▁rowspan=\"1\">A":8637,"iness":8638,"</bold>#n#</th></tr></thead><tbody><tr":8639,"▁All":8640,"▁aden":8641,"▁align=\"char\">18":8642,"▁issu":8643,"</italic>#n#</th><th>#n#<italic>":8644,"▁working":8645,"namic":8646,"3\">\\documentclass[12pt]{minimal}#n#\t\t\t\t\\usepackage{amsmath}#n#\t\t\t\t\\usepackage{wasysym}":8647,"▁valign=\"bottom\">U":8648,"▁University":8649,"0.30":8650,"▁(median":8651,"▁valign=\"bottom\">Yes<hr/></td><td":8652,"▁obs":8653,"▁colspan=\"1\">1.2":8654,"34,":8655,"▁decreased":8656,"▁align=\"left\">35":8657,"·2":8658,"▁colspan=\"1\">T</td><td":8659,"▁colspan=\"1\">0.60":8660,"▁hyp":8661,"▁hem":8662,"157":8663,"</td><td>13.":8664,"▁various":8665,"cluding":8666,"▁[−":8667,"▁L.":8668,"▁valign=\"bottom\">1.00<hr/></td><td":8669,"▁align=\"left\">29":8670,"3)</td></tr><tr><td>":8671,"tensive":8672,"iter":8673,"▁frontal":8674,"▁pal":8675,"▁assign":8676,"press":8677,"▁(%)</td></tr><tr><td":8678,"▁concer":8679,"0.38":8680,"▁cr":8681,"spective":8682,"▁Ins":8683,"</td></tr><tr><td>V":8684,"▁dam":8685,"</mml:mo><mml:mo>":8686,"▁aer":8687,"ncbi.nlm.nih.gov":8688,"▁valign=\"bottom\">8.":8689,"▁colspan=\"1\">5</td></tr><tr><td":8690,"34<hr/></td><td":8691,"</xref>]</td></tr><tr":8692,"<sub><italic>":8693,"▁remo":8694,"280":8695,"8-":8696,"▁colspan=\"1\">0.06</td><td":8697,"2</th><th":8698,"67</td></tr><tr><td":8699,"11\">":8700,"▁large":8701,"▁rowspan=\"1\">#n#":8702,"▁align=\"left\">1</td></tr><tr><td":8703,"▁colspan=\"1\">Patient":8704,"Rec":8705,"ouns":8706,"</td><td>ND":8707,"▁node":8708,"GAAA":8709,"▁South":8710,"▁<italic>C":8711,"/ml":8712,"</italic>-":8713,"▁Sh":8714,"▁possible":8715,"-ent":8716,"ampling":8717,"0.37":8718,"ea</td><td":8719,"duct":8720,"▁observed":8721,"55)</td><td":8722,"▁=</italic>":8723,"▁cal":8724,"encies":8725,"±1":8726,"T,":8727,"▁1.4":8728,"·3":8729,"-Co":8730,"▁living":8731,"▁0.07":8732,"▁valign=\"bottom\">K":8733,"▁colspan=\"1\">L</td><td":8734,"utrients":8735,"dom":8736,"atural":8737,"aged":8738,"▁(%)</bold></td><td":8739,"5.9</td><td":8740,"28\">":8741,"</td><td>The":8742,"▁s</td><td":8743,"ulty":8744,"▁colspan=\"1\">0.49":8745,"▁plan":8746,"▁align=\"left\">40":8747,"▁colspan=\"1\">Protein":8748,"▁43":8749,"thing":8750,"surance":8751,"arcom":8752,".<hr/></td></tr><tr><td":8753,"▁rules=\"groups\"><thead><tr><td/><td":8754,"imension":8755,"▁valign=\"bottom\">7<hr/></td><td":8756,"</td><td>55":8757,"25<hr/></td><td":8758,"bc":8759,"▁dataset":8760,"▁5.0":8761,"ither":8762,"▁(63.":8763,"▁(20.":8764,"</italic></bold><bold>":8765,"],":8766,"▁better":8767,"une":8768,"▁valign=\"top\"><th>#n#<bold>":8769,"▁html><html><body><h4>Patient":8770,"▁valign=\"bottom\">p":8771,"▁amino":8772,"▁electr":8773,"9.6</td><td":8774,"101":8775,"▁biosynth":8776,"GE":8777,"29\">":8778,"▁squ":8779,"▁85":8780,"ociated":8781,"▁SE":8782,"▁rem":8783,"otor":8784,"▁Time":8785,"istry":8786,"%</td><td>2":8787,"ask":8788,"GU":8789,"▁lig":8790,"▁0.18":8791,"(0.9":8792,"osta":8793,"><mml:mspace":8794,"raw":8795,"</italic>#n#<break/>":8796,"▁0.6</td><td":8797,"▁br":8798,"–14":8799,"▁colspan=\"1\">55</td><td":8800,"36,":8801,"▁align=\"left\">1,":8802,"▁colspan=\"1\">52</td><td":8803,"ivor":8804,"gnant":8805,"▁section":8806,"▁discharge":8807,"▁html><html><body><h4>H":8808,"go":8809,"▁ed":8810,"▁align=\"left\">Not":8811,"▁epis":8812,"p</italic>-value":8813,"▁valign=\"bottom\"><bold>P":8814,"(0.5":8815,"▁<sup>c":8816,"27\"":8817,"plant":8818,"▁others":8819,"mental":8820,"▁colspan=\"1\">Time":8821,"tle":8822,"-pro":8823,"tivation":8824,"lect":8825,"▁colspan=\"1\">75":8826,"▁signal":8827,"▁deliver":8828,"bumin":8829,"60\"":8830,"▁recruit":8831,"33<hr/></td><td":8832,"▁statistics":8833,"▁align=\"left\">rs":8834,"▁(70":8835,"#n#\\usepackage{":8836,"/B":8837,"▁colspan=\"1\">BMI":8838,"</td></tr><tr><td>I":8839,"dis":8840,"▁impair":8841,"antitative":8842,"orbidity":8843,"▁healthcare":8844,"▁behaviour":8845,"cher":8846,"▁colspan=\"1\">Sup":8847,"▁ble":8848,"▁leg":8849,"tively":8850,"▁rowspan=\"1\">L":8851,"mal":8852,"GACA":8853,"▁BP":8854,"▁colspan=\"1\"><sup>":8855,"▁ref-type=\"ref\">#n#<sup>":8856,"0.07":8857,"▁align=\"center\">22":8858,"urgery":8859,"ery</td><td":8860,"▁align=\"center\">1.00</td><td":8861,"ross-sectional":8862,"▁Ne":8863,"▁bur":8864,"▁align=\"center\">X</td><td":8865,"UN":8866,"<sub>4</sub>":8867,"▁(0.88":8868,"</th><th>H":8869,"▁colspan=\"1\">0.59":8870,"bar":8871,"tral":8872,"▁USA":8873,"▁colspan=\"1\">Age</td><td":8874,"75</td></tr><tr><td":8875,"70\"":8876,"▁sch":8877,"osition":8878,"9.9</td><td":8879,"▁<italic>n":8880,"270":8881,"▁It":8882,"19_":8883,"▁valign=\"bottom\">8<hr/></td><td":8884,"ccupation":8885,"9.7</td><td":8886,"▁rules=\"groups\"><tbody><tr":8887,"▁rid=\"B13":8888,"▁colspan=\"1\">1.4":8889,"estionnaire":8890,"▁(Ref":8891,"▁(0.85":8892,"▁colspan=\"1\">54</td><td":8893,"GGC":8894,"▁1.9":8895,"▁poli":8896,"ues":8897,"6.4</td><td":8898,"▁arm":8899,"00,":8900,"▁<inline-formula><mml:math":8901,"ters":8902,"210":8903,"▁colspan=\"1\">0.56":8904,"ementia":8905,"▁investig":8906,"▁colspan=\"1\">Cl":8907,"▁items":8908,"tries":8909,"ominant":8910,"/L)</td><td":8911,"▁areas":8912,"▁(bp":8913,"</td><td>67":8914,"▁id=\"table":8915,"▁(59.":8916,"44,":8917,"GTCA":8918,"wed":8919,"▁gain":8920,"▁<italic>(":8921,"oxy":8922,"▁(0.75":8923,"▁findings":8924,"</named-content></named-content":8925,"2)</td></tr><tr><td>":8926,"▁(0.90":8927,"TM":8928,"▁(62.":8929,"ographic":8930,"yroid":8931,"issing</td><td":8932,"49,":8933,"▁detection":8934,"▁composition":8935,"▁al,":8936,"0.80":8937,"1</td><td>6":8938,"▁accent=\"true":8939,"estational":8940,"ferior":8941,"own</td><td":8942,"▁adverse":8943,"With":8944,"▁value</td><td":8945,"jection":8946,"▁colspan=\"1\">70</td><td":8947,"aline":8948,"ozyg":8949,"Arg":8950,"▁(O":8951,"/12":8952,"▁colspan=\"1\">/</td><td":8953,"▁tested":8954,"▁colspan=\"1\">0.94":8955,"ly</td><td":8956,"isms":8957,"33,":8958,"1a":8959,".D":8960,"▁Medical":8961,"▁Medic":8962,"</italic>#n#<sub><italic>":8963,"<break/>(n":8964,"▁(64.":8965,"▁Hz":8966,"80</td></tr><tr><td":8967,"0.08":8968,"jective":8969,"ln":8970,"Treatment":8971,"▁colspan=\"1\">47</td><td":8972,"%;":8973,"crease":8974,"▁spe":8975,"reported":8976,"</mml:mo></mml:math><inline-graphic":8977,"▁align=\"left\">50":8978,"▁Test":8979,"bell":8980,"▁min</td><td":8981,"row/":8982,"▁valign=\"bottom\">10<hr/></td><td":8983,"▁2006":8984,"▁order":8985,"▁aure":8986,"158":8987,"itch":8988,"290":8989,"▁0.99":8990,"▁rowspan=\"1\">#n#<italic>":8991,"35,":8992,"2000":8993,"u</td><td":8994,"▁align=\"right\">0</td><td":8995,"ancers":8996,"47,":8997,")</td><td>–":8998,"21.":8999,"▁colspan=\"1\">Inf":9000,"Clinical":9001,"▁198":9002,"}$":9003,"31<hr/></td><td":9004,"(1.0":9005,"▁<italic>R":9006,"'</td><td":9007,"165":9008,"</mml:mo></mml:mover":9009,"▁plus":9010,"▁colspan=\"1\">1.6":9011,"-valu":9012,"acillus":9013,"▁categories":9014,"▁clear":9015,"sycho":9016,"▁colspan=\"1\">Unknown</td><td":9017,"▁Never":9018,"▁partner":9019,"2</italic>":9020,"▁functional":9021,"</td><td>0.25":9022,")</td><td>12":9023,"e-":9024,"▁link":9025,"EGF":9026,"0.48":9027,"</td><td>14.":9028,"▁siz":9029,"▁study</h4><head><style>":9030,"▁colspan=\"1\">7.0":9031,"ilstein":9032,"▁(50.0":9033,"159":9034,"▁I</td><td":9035,"9.8</td><td":9036,"▁sal":9037,"ultivariable":9038,"▁gener":9039,"organ":9040,"earing":9041,"Beilstein":9042,"▁xlink:href=\"Beilstein":9043,"▁xlink:href=\"Beilstein_J":9044,"▁inhibition":9045,"abo":9046,"lock":9047,"▁(y":9048,"</mml:mo><mml:msup":9049,"250":9050,"▁colspan=\"1\">0.3</td><td":9051,"▁#n#</td><td":9052,"/mL":9053,"▁mar":9054,"▁(67":9055,"▁(ml":9056,"167":9057,"</td><td>m":9058,"</td><td>None":9059,"entil":9060,"▁primer":9061,"35<hr/></td><td":9062,"45\"":9063,"▁colspan=\"2\">#n#<bold>":9064,"ez":9065,"educed":9066,"▁vivo":9067,"nowledge":9068,"ba":9069,"▁align=\"char\">4</td><td":9070,"GL":9071,"▁align=\"left\">11</td><td":9072,"▁colon":9073,"▁Car":9074,"▁align=\"left\"><italic>P":9075,"es</th><th":9076,"plus":9077,"</td><td>1.6":9078,"MB":9079,"▁Cell":9080,"144":9081,"▁9</td><td":9082,"▁colspan=\"1\">59":9083,"▁initial":9084,"▁rid=\"TF000":9085,"▁colspan=\"1\">0.25</td><td":9086,"GG</td><td":9087,"</td><td>0.98":9088,"0.36":9089,".org/":9090,"45<hr/></td><td":9091,"▁colspan=\"1\"/></tr></thead><tbody><tr><td":9092,"cel":9093,"</td></tr><tr><td>K":9094,"</bold>#n#</th></tr></thead><tbody><tr><td":9095,"▁cer":9096,"▁PC":9097,"▁0.08":9098,"tiliz":9099,"uto":9100,"▁colspan=\"1\">−</td></tr><tr><td":9101,"▁Stage":9102,"_2020_":9103,"▁lipid":9104,"▁implementation":9105,"%)</td><td>3":9106,"▁colspan=\"1\">1.7":9107,"▁colspan=\"1\">0.93":9108,"▁cas":9109,"▁html><html><body><h4>Dis":9110,"ency</td><td":9111,")</p></td><td><p>":9112,"Ag":9113,"▁colspan=\"1\">*</td><td":9114,"▁dele":9115,"▁ER":9116,"▁Man":9117,"▁kidney":9118,"sultation":9119,"▁ratios":9120,"▁colspan=\"1\">CH":9121,"CCC":9122,"▁(1,":9123,"rup":9124,"38\"":9125,"ACT":9126,"▁align=\"left\">This":9127,"-05":9128,"70</td></tr><tr><td":9129,"▁valign=\"top\"><td>#n#<italic>":9130,"mark":9131,"onomic":9132,"ke</td><td":9133,"6.9</td><td":9134,"▁colspan=\"1\">&lt;0.0001</td></tr><tr><td":9135,"▁(N=":9136,"▁communication":9137,"▁colspan=\"1\">t":9138,"▁1pt":9139,"▁parent":9140,"▁32":9141,"ATTT":9142,"▁Min":9143,"▁tow":9144,"▁colspan=\"1\">Left":9145,"-ch":9146,"▁1000":9147,"▁severity":9148,"▁valign=\"bottom\">No<hr/></td><td":9149,"GP":9150,"troke":9151,"169":9152,"▁clos":9153,"▁(100%)</td><td":9154,"epsis":9155,"▁align=\"left\">c":9156,"▁class=\"":9157,"age</td><td":9158,"TS":9159,"</td><td>56":9160,"▁colspan=\"1\">1.8":9161,"-month":9162,"39<hr/></td><td":9163,"ation</th><th":9164,"6<hr/></td></tr><tr><td":9165,"F</italic>":9166,"39,":9167,"MV":9168,"ometric":9169,"▁insulin":9170,"▁colspan=\"1\">64":9171,";b":9172,"hang":9173,"▁(0.89":9174,"▁align=\"left\">1.00</td><td":9175,"iber":9176,"trem":9177,"</td><td>90":9178,"6.6</td><td":9179,"▁content-type=\"taxon-name\"><":9180,"▁content-type=\"taxon-name\"><named-content":9181,"orectal":9182,"▁plann":9183,"eeling":9184,"▁practic":9185,"genic":9186,"2</td><td>2":9187,"treated":9188,"3;":9189,"▁(199":9190,"ried":9191,"gif\"/></alternatives></inline-formula></td><td":9192,"uli":9193,"toplas":9194,"▁incidence":9195,"AK":9196,"</mml:mn></mml:math>#n#</td><td":9197,"▁liter":9198,"33\">":9199,"</td><td/><td/><td>":9200,"0.90":9201,"</sup><break/>":9202,"42,":9203,"▁(0,":9204,"A</italic></td><td":9205,"hsa-miR-":9206,"▁(24":9207,"▁distance":9208,"▁does":9209,"▁(0.94":9210,"34\"":9211,"▁colspan=\"4\"><bold>":9212,"▁full":9213,"><mml:mrow><mml:msub":9214,"▁colspan=\"1\"><italic>N":9215,"▁(0.78":9216,"-4.":9217,"ention":9218,"24<hr/></td><td":9219,"et</td><td":9220,"▁assay":9221,"▁artery":9222,"lective":9223,"b3":9224,"▁colspan=\"5\"><bold>":9225,"35\"":9226,"▁i":9227,"issu":9228,"29\"":9229,"▁often":9230,"D</th><th":9231,"▁align=\"char\">0.000":9232,"toph":9233,"2</td><td>0.0":9234,"</td><td>68":9235,"▁align=\"center\">12</td><td":9236,"0.29":9237,"▁rowspan=\"2\">M":9238,"<break/>P":9239,"lox":9240,"▁Bi":9241,"HP":9242,"0.70":9243,"trict":9244,"▁safety":9245,"6.8</td><td":9246,"▁parents":9247,"▁(0.80":9248,"/μ":9249,"▁colspan=\"1\">−2.":9250,"▁specified":9251,"pecificity":9252,"</th><th>Total":9253,"<sup>c</sup></td><td>":9254,"▁vol":9255,"36<hr/></td><td":9256,"▁colspan=\"1\">#n#<bold>P":9257,"-W":9258,"nes":9259,"M.":9260,"lc":9261,"/7":9262,"0.40":9263,"mathrm{":9264,"▁Care":9265,"2008":9266,"▁·":9267,"BB":9268,"estern":9269,"▁colspan=\"1\">6</td></tr><tr><td":9270,"</td><td>58":9271,"65</td></tr><tr><td":9272,"Outcome":9273,"▁colspan=\"1\">51</td><td":9274,"▁colspan=\"1\">56</td><td":9275,"G&gt;":9276,"▁deta":9277,"▁Year":9278,"n/a":9279,"gene":9280,"▁responses":9281,"urgical":9282,"▁(yes":9283,"resence":9284,"▁complications":9285,"thes":9286,"▁colspan=\"1\"><italic>p":9287,"▁(<italic>n":9288,"stim":9289,"▁colspan=\"1\">−0.5":9290,"_Org":9291,"</td><td>0.17":9292,"38,":9293,"BE":9294,"34\">":9295,"–7.":9296,"0.47":9297,"▁38":9298,"▁1.3":9299,"2\">22":9300,"44<hr/></td><td":9301,"▁valign=\"bottom\">&lt;0.001":9302,"arding":9303,"▁protocol":9304,"▁(0.87":9305,"▁Ca":9306,"clear":9307,"▁oste":9308,"▁genetic":9309,"enopa":9310,"▁fluid":9311,"▁cardiac":9312,"▁colspan=\"1\">0.92":9313,"</td><td>64":9314,"_Chem":9315,"▁emo":9316,"▁cross":9317,"▁align=\"center\">-1.":9318,"▁lac":9319,"</td><td>1.8":9320,"fac":9321,"▁xlink:href=\"Beilstein_J_Org":9322,"▁xlink:href=\"Beilstein_J_Org_Chem":9323,"▁fit":9324,"▁align=\"center\">11</td><td":9325,"▁(0.77":9326,"1</italic>#n#</td><td":9327,"▁align=\"center\">n":9328,"143":9329,"▁(68.":9330,"▁doctor":9331,"▁dehydrogenase":9332,"▁wall":9333,"▁0.19":9334,"▁involvement":9335,"▁align=\"left\">X":9336,"▁fer":9337,"A2":9338,"▁align=\"char\">19":9339,"-0.8":9340,"th></tr><tr><th":9341,"3K":9342,"</td><td>1.4":9343,"′</td><td":9344,"▁(65.":9345,"ool":9346,"arriers":9347,"</td><td>57":9348,"▁measurement":9349,"F,":9350,"▁colspan=\"1\">0.21":9351,"▁align=\"center\">26":9352,"600":9353,"▁rid=\"TN1\"><sup>*</sup></xref></td><td":9354,"▁align=\"left\">36":9355,"▁malaria":9356,"biotics":9357,"fficient":9358,"▁colspan=\"1\">√</td><td":9359,"▁term":9360,"lipid":9361,"24\">24":9362,"amine":9363,"▁groups</h4><head><style>":9364,"orbidities":9365,"▁72":9366,"▁gyrus</td><td":9367,"▁motor":9368,"▁colspan=\"1\">Case":9369,"enza":9370,"/E":9371,"0.09":9372,"amma":9373,"tron":9374,"▁participa":9375,"alitative":9376,"▁colspan=\"1\">49</td><td":9377,"▁value</th></tr></thead><tbody><tr><td>":9378,"▁milk":9379,"</td><td>15.":9380,"18<hr/></td><td":9381,"–19":9382,"▁leuk":9383,"ssessment":9384,"▁html><html><body><h4>Par":9385,"stant":9386,"<break/>C":9387,"–0.5":9388,"▁COVID":9389,"▁(71.":9390,"▁4,":9391,"▁colspan=\"1\">n/":9392,"reference":9393,"▁align=\"left\">100</td><td":9394,"49<hr/></td><td":9395,"<sup>*</sup></td><td":9396,"33\"":9397,"▁whe":9398,"▁cur":9399,"▁(9)</td><td":9400,"48,":9401,"-07":9402,"</td><td>1.7":9403,"23\">23":9404,"▁ref-type=\"bibr\">L":9405,"▁rid=\"B8":9406,"MH":9407,"<sup>b</sup></td></tr><tr><td":9408,"▁colspan=\"1\">0.34":9409,"▁colspan=\"1\">−0.1":9410,"▁colspan=\"1\">Am":9411,"</bold>#n#<break/>#n#<bold>":9412,"▁open":9413,"olu":9414,"▁2000":9415,"▁colspan=\"1\">±":9416,"▁capac":9417,"loid":9418,"▁char=\"×\"":9419,"6</td></tr></tbody></table></body></html>\n":9420,"▁(12.5":9421,"▁34":9422,"</td><td>66":9423,")</bold></td><td>":9424,"▁colspan=\"1\">1.5</td><td":9425,"-note-0005\">":9426,"▁once":9427,"▁0.7</td><td":9428,"0.45":9429,"tras":9430,"▁colspan=\"1\">NS</td></tr><tr><td":9431,"▁(0.86":9432,"B\"":9433,"▁align=\"left\">n.":9434,"kely":9435,"▁align=\"left\">37":9436,"</sub><sup>":9437,"ation</td></tr><tr><td":9438,"ayed":9439,"▁rid=\"tf1-":9440,"▁colspan=\"1\">Clinical":9441,"35\">":9442,"inger":9443,"0.60":9444,"25\">25":9445,"26\">26":9446,"▁infar":9447,"ns</td></tr><tr><td":9448,"-3′</td></tr><tr><td":9449,"AI":9450,"2010":9451,"▁colspan=\"1\">90</td><td":9452,"▁apoptosis":9453,"▁colspan=\"1\">“":9454,"bry":9455,"ras":9456,"ites":9457,"▁style=\"background-color:#FFFF":9458,"166":9459,"agg":9460,"▁direct":9461,"hor":9462,"▁surve":9463,"mune":9464,"43,":9465,"▁(0.79":9466,"▁%)</td></tr><tr><td":9467,"▁align=\"left\">M</td><td":9468,"▁contrac":9469,"▁eff":9470,"</td><td>Pro":9471,"27\">27":9472,"▁kg/m":9473,"ticular":9474,"▁(20)</td><td":9475,"▁0.06</td><td":9476,"▁colspan=\"1\">g":9477,"▁field":9478,"</th></tr><tr><th/><th":9479,"brid":9480,"▁colspan=\"1\">.</td><td":9481,"▁colspan=\"1\">58</td><td":9482,"ially":9483,"eh":9484,"GGCT":9485,"▁presence":9486,"20\">20":9487,"▁valign=\"bottom\"><bold>M":9488,"▁rowspan=\"1\">B":9489,"▁OS":9490,"▁colspan=\"1\">8</td></tr><tr><td":9491,"▁since":9492,"▁intensity":9493,"▁mut":9494,"▁colspan=\"13\"":9495,"▁famili":9496,"▁prevent":9497,"▁colspan=\"1\">51":9498,"5<hr/></td></tr><tr><td":9499,"▁rid=\"CR6":9500,"eq":9501,"tar":9502,"isting":9503,"▁background-color:rgb(255,255,255)\"":9504,"°C</td><td":9505,"▁(a":9506,"▁99":9507,"▁valign=\"bottom\">30":9508,"raining":9509,"2–1.":9510,"><inline-formula><mml:math":9511,"PM":9512,"P</italic>-value":9513,"<sup>-1":9514,"▁colspan=\"2\">C":9515,"38<hr/></td><td":9516,"ires":9517,"▁colspan=\"1\">Health":9518,"ocardial":9519,"36\"":9520,"▁Anti":9521,"▁0.8</td><td":9522,"GTGT":9523,"cluded":9524,"E-1":9525,"ene</td><td":9526,"188":9527,"thern":9528,"vs.":9529,"rugs":9530,"5)<hr/></td><td":9531,"aster":9532,"▁colspan=\"1\">++":9533,"6</bold></td><td":9534,"▁colspan=\"1\">2.5":9535,"▁plac":9536,"▁(99.":9537,"▁ou":9538,"▁33":9539,"illary":9540,"1</td><td>3":9541,"copy":9542,"5</bold></td><td":9543,"apy</td><td":9544,"e.":9545,"uan":9546,"0.002":9547,")</bold></td><td><bold>":9548,"▁maternal":9549,"<sup>R":9550,"▁ability":9551,"17<hr/></td><td":9552,"▁chemotherapy":9553,"erral":9554,"iff":9555,"▁(0.68":9556,"</p></list-item><list-item":9557,"▁rid=\"REF":9558,"▁components":9559,"<break/>M":9560,"▁(0.70":9561,"▁colspan=\"1\">0.83":9562,"></italic>#n#</td><td":9563,"▁67":9564,"▁valign=\"bottom\">9.":9565,"237":9566,"1</td><td/><td>":9567,"</td><td>0.12":9568,"▁Eng":9569,"▁ampli":9570,"</th></tr><tr><th/><th>":9571,"▁colspan=\"1\">chr":9572,"</bold></sup></td><td":9573,"></mml:mfrac":9574,"▁1.2":9575,"7E6E":9576,"▁(0.67":9577,"▁12</td><td":9578,"▁colspan=\"1\">67":9579,"RD":9580,"1</td><td>2.":9581,"▁colspan=\"1\">0.07</td><td":9582,"▁(0.69":9583,"▁align=\"center\">28":9584,"▁B</td><td":9585,"▁(mmol/L)</td><td":9586,"▁align=\"left\">Z":9587,"0.46":9588,"28\">28":9589,"▁(0.65":9590,"▁colspan=\"1\">63":9591,"bA1":9592,"69</td></tr><tr><td":9593,"urb":9594,"▁(range)</td><td":9595,"▁align=\"center\">E":9596,"M_0":9597,"▁Ag":9598,"▁colspan=\"1\">++</td><td":9599,"▁colspan=\"1\">0.84":9600,"0000</td><td":9601,"▁height":9602,"85</td></tr><tr><td":9603,"▁align=\"left\">Al":9604,"uary":9605,"/8":9606,"levated":9607,"▁make":9608,"▁oil":9609,"ero":9610,"▁align=\"center\">−":9611,"▁align=\"left\">Q":9612,"cess</td><td":9613,"48<hr/></td><td":9614,"ira":9615,"23<hr/></td><td":9616,"keletal":9617,"▁(65":9618,"escriptive":9619,"▁moderate":9620,"1\">21":9621,"andid":9622,"▁take":9623,"resh":9624,"19<hr/></td><td":9625,"29\">29":9626,"▁techni":9627,"GAAT":9628,"▁(1.7":9629,"</td><td>0.05":9630,"▁<italic>T":9631,"1</td><td>7":9632,"40\">":9633,"alf":9634,"and</td><td":9635,"GATT":9636,"....":9637,"References":9638,"▁reli":9639,"▁colspan=\"1\">Up":9640,"▁complete":9641,"▁colspan=\"1\">62":9642,"37<hr/></td><td":9643,"▁shock":9644,"</td><td>69":9645,"</td></tr><tr><td>Total":9646,"iang":9647,"AV":9648,"istered":9649,"▁(0.76":9650,"essel":9651,"><mml:mrow><mml:mo":9652,"▁temporal":9653,"ehav":9654,"▁valign=\"bottom\">In":9655,"111":9656,"▁ref-type=\"bibr\"><sup>":9657,"▁(11)</td><td":9658,"<sup>r":9659,"5.00":9660,"ersonal":9661,"</bold>)</td><td":9662,"▁pattern":9663,"cepti":9664,"▁valign=\"bottom\">0.000":9665,"▁colspan=\"1\">Study":9666,"▁align=\"center\">p":9667,"▁ref-type=\"bibr\">2013":9668,"</td><td>1.3":9669,"100\"":9670,"HL":9671,"▁oxid":9672,"▁sensitivity":9673,"▁xlink:href=\"K":9674,"▁align=\"center\">27":9675,"ets":9676,"▁(69.":9677,"</bold><bold><italic>":9678,"▁Cl":9679,"▁workers":9680,"</xref>];":9681,"</td><td>54":9682,"▁migr":9683,"</italic></sup></td><td":9684,"177":9685,"▁star":9686,"▁colspan=\"10\"><hr/></td></tr><tr><td":9687,">#n#</th><th":9688,"▁colspan=\"1\">0.4</td><td":9689,"5\"><sup>":9690,"8<hr/></td></tr><tr><td":9691,"yes</td><td":9692,"</td><td>0.15":9693,"▁y</td><td":9694,"▁mg/dL":9695,"</p></list-item></list>#n#</td><td":9696,"▁0.09":9697,"intile":9698,"▁carbo":9699,"▁colspan=\"1\">Phase":9700,"▁immune":9701,"</td><td>0.18":9702,"▁(67.":9703,"0.0</td></tr><tr><td":9704,"▁colspan=\"1\">57</td><td":9705,"▁rid=\"CR7":9706,"t2":9707,"▁colspan=\"1\">7</td></tr><tr><td":9708,"▁0.20":9709,"-K":9710,"%)<break/>":9711,"0.39":9712,"-ex":9713,"haracteristics</th><th":9714,"▁Δ":9715,"▁feedback":9716,"▁(cm)</td><td":9717,"▁66":9718,"hydroxy":9719,"tiveness":9720,"acroph":9721,"▁light":9722,"▁check":9723,"></bold></td><td":9724,"orn":9725,"version":9726,"GGTT":9727,"WT":9728,"▁colspan=\"1\">0.44":9729,"3</italic></td><td":9730,"▁colspan=\"1\">53</td><td":9731,"30\">30":9732,"▁68":9733,"-term":9734,"▁hospitaliz":9735,"▁cat":9736,"▁improved":9737,")</td><td>13":9738,"eep":9739,"▁align=\"center\">30":9740,"▁colspan=\"1\">No</td></tr><tr><td":9741,"▁rowspan=\"1\">#n#<break/>#n#</td><td":9742,"230":9743,"▁39":9744,"▁description":9745,"um</italic></td><td":9746,"▁colspan=\"1\">China</td><td":9747,"-day":9748,"ending":9749,"▁(6.0":9750,"easu":9751,"▁mother":9752,"▁colspan=\"1\">0.82":9753,"▁nm":9754,"otes":9755,"▁ax":9756,"born":9757,"▁Normal":9758,"36\">":9759,"ree</td><td":9760,"acco":9761,"</italic>-<italic>":9762,"eutic":9763,"▁progression":9764,"ultural":9765,"no</td><td":9766,"ao":9767,"42<hr/></td><td":9768,"(N":9769,"▁colspan=\"1\">68":9770,"▁rid=\"B14":9771,"–1.5":9772,"▁2005":9773,"22.":9774,"-free":9775,"FR":9776,"–11":9777,"▁colspan=\"1\">Min":9778,"lied":9779,"▁rid=\"CR10":9780,"▁MS":9781,"GAC":9782,"▁teach":9783,"▁Gu":9784,"▁linear":9785,"▁align=\"center\"><ext-link":9786,"cat":9787,"▁align=\"char\">5</td><td":9788,"19\">19":9789,"</td><td>4.0":9790,"▁1.0pt;\"":9791,"▁channel":9792,"ards":9793,"▁obtained":9794,"ario":9795,"Patient":9796,"?</td></tr><tr><td":9797,"▁align=\"left\">15</td><td":9798,"</td><td>0.10":9799,"</xref>#n#</th><th":9800,"220":9801,"ape":9802,"▁colspan=\"1\">5,":9803,"▁colspan=\"1\">ns</td><td":9804,"PG":9805,"37,":9806,"78</td></tr><tr><td":9807,"▁adult":9808,"▁(0.84":9809,"ificance":9810,"▁eth":9811,"▁T2":9812,"vers":9813,"▁(12)</td><td":9814,"▁align=\"left\">38":9815,"</bold></td></tr><tr":9816,"▁represent":9817,"uropean":9818,"▁align=\"right\">-":9819,"▁colspan=\"1\">1.000</td><td":9820,"▁align=\"left\">X</td><td":9821,"▁bias":9822,"opathy":9823,"▁(73.":9824,"#n#<italic>n</italic>":9825,"37\">":9826,"xicity":9827,"▁alone":9828,"▁colspan=\"1\">0.08</td><td":9829,"▁char=\".\">0.0":9830,"</td><td>0.95":9831,"175":9832,"▁align=\"left\"><bold>F":9833,"Tr":9834,"▁align=\"center\">0</td></tr><tr><td":9835,"<sub>6":9836,"▁Status":9837,"46<hr/></td><td":9838,"efficients":9839,"(+":9840,"PH":9841,"▁colspan=\"1\"><italic>L":9842,"▁fl":9843,"ives":9844,"IV</td><td":9845,"▁align=\"center\">[<xref":9846,"</td><td>59":9847,"ducational":9848,"juv":9849,"▁pulmonary":9850,"</th><th>E":9851,"(s":9852,"▁treatment</td><td":9853,"▁0px;":9854,"▁answ":9855,"▁18.":9856,"▁colspan=\"1\">66":9857,"</td><td>0.13":9858,"▁1.00":9859,"apse":9860,"▁align=\"center\">–</td><td":9861,"▁air":9862,"imer":9863,"370":9864,"iform":9865,"▁colspan=\"1\">Is":9866,"▁antibody":9867,"▁(CI":9868,"igar":9869,"▁windowtext":9870,"▁64":9871,"▁<bold><italic>":9872,"bodies":9873,"▁colspan=\"1\">Low</td><td":9874,"FU":9875,"▁colspan=\"1\">IL":9876,"▁colspan=\"1\">Age,":9877,"aem":9878,"▁togg":9879,"▁lif":9880,"is</italic>":9881,"</xref>]</td><td>20":9882,"▁effective":9883,"border-bottom:solid":9884,"▁rules=\"groups\"><colgroup><col":9885,"▁mM":9886,"▁colspan=\"1\">Yes</td></tr><tr><td":9887,"▁align=\"left\">The":9888,"-mir":9889,"ournal":9890,"▁colspan=\"12\"":9891,"▁toggle=\"":9892,"regulation":9893,"▁(0.66":9894,"▁0.0001</td></tr><tr><td":9895,"sm":9896,"</td><td>16.":9897,"▁ref-type=\"bibr\">2014":9898,"▁<italic>p":9899,"thm":9900,"▁five":9901,"embrane":9902,"▁much":9903,"▁rid=\"jc":9904,"4)</td></tr><tr><td>":9905,"inanc":9906,"198":9907,"xin":9908,"Ab":9909,"alcium":9910,"t1":9911,"▁align=\"left\">100":9912,"▁(76.":9913,"▁align=\"center\"><bold>N":9914,"-03":9915,"plusm":9916,"▁performed":9917,"▁0.9</td><td":9918,"6)</td></tr><tr><td>":9919,")\"":9920,"▁ED":9921,"▁popul":9922,"ailability":9923,"154":9924,"▁resources":9925,"GO":9926,"bp":9927,"</p>#n#</th><th":9928,"▁valign=\"top\">S":9929,"▁sti":9930,"▁html><html><body><h4>Distribution":9931,"▁colspan=\"1\">0.91":9932,"18\">18":9933,"1</bold>#n#</td><td":9934,"irmed":9935,"▁rid=\"TN4\"><sup>":9936,"</bold></sup></th><th":9937,"thal":9938,"38\">":9939,"</italic><sup><italic>":9940,"▁satisfaction":9941,"/1":9942,"▁coverage":9943,"ATP":9944,"▁valign=\"bottom\">9<hr/></td><td":9945,"CATT":9946,"7<hr/></td></tr><tr><td":9947,"▁(°C":9948,"s</td></tr><tr><td>":9949,"-3</td><td":9950,"▁(33.3":9951,"/kg":9952,"tudies":9953,"24.":9954,"cn":9955,"▁Non":9956,"▁memory":9957,"live":9958,"occ":9959,"▁strategies":9960,"▁having":9961,"▁eas":9962,"▁peak":9963,"tatin":9964,"</td><td>0.20":9965,"▁type</td><td":9966,"<sup>a</sup></td></tr><tr><td>":9967,":<break/>":9968,"▁trend":9969,"▁throm":9970,"proved":9971,"164":9972,"▁conn":9973,"ography":9974,"relations":9975,"ness</td><td":9976,"▁colspan=\"1\">−0.00":9977,"-associated":9978,"▁colspan=\"1\"><italic>H":9979,"unt":9980,"</th><th>O":9981,"formance":9982,"i</italic></td><td":9983,"▁colspan=\"1\">75</td><td":9984,"22<hr/></td><td":9985,"▁align=\"left\">F</td><td":9986,"▁align=\"left\">2.0":9987,"47<hr/></td><td":9988,"▁dig":9989,"1\">31":9990,"ened":9991,"±1.":9992,"</td><td>✓</td><td>✓":9993,"plex":9994,"</td><td>0.14":9995,"▁Ref":9996,"atelet":9997,"▁colspan=\"1\">1.9":9998,"▁rid=\"cam4":9999},"merges":["= \"","> <","t d","n =\"","l i","a li","< /",">< td","ali g","alig n=\"","p a","s pa","spa n=\"","1 \"","span=\" 1\"","</ td","</td ><td","▁ align=\"","o l","▁ c","l e","▁ r","o w","▁c ol","▁r ow",">< /","▁row span=\"1\"","t r","▁col span=\"1\"","e r","▁colspan=\"1\" >","t \"","e n","▁ v","le f","lef t\"","▁align=\" left\"","▁v align=\"","▁align=\" c","t o","en t","t h","ent er","enter \"","▁align=\"c enter\"",">< tr","></ tr","0 .","</td><td >","b o","to p","></tr ><tr","top \"","▁valign=\" top\"","a r","▁ (","></tr><tr ><td","\" >","i d","></ td","h ar","i t","</td ></tr><tr><td","0 0","i n","r e","▁align=\"left\" >","m l","></td ><td","ol d","b old","▁ s","it ali","itali c","o n","to m","s u","h r","bo t","bot tom","t y","hr /",">< th","n #","# n#","o r","t i",") </td><td","1 .","a n","▁valign=\" bottom","italic >","a l","m id","d le","< hr/","mid dle","▁valign=\" middle","▁valign=\"middle \"","h t","/ ><td","d y","e s","▁valign=\"bottom \">","▁align=\"c har","▁c har","e a","t a","bo dy","bold >","▁char =\"","su p","<hr/ ></td><td","3 .","▁align=\"center\" >","re f","th ><th","ty le","w w","ea d","r o","li n","x ref","b le","▁char=\" .","9 9","m ml","e d","a c","d er","2 .","▁char=\". \"","e =\"","▁ 1","▁ th","ta ble","</ th><th","sup >","0. 0","▁ o","▁ f","▁colspan=\"1\"> 1","bo r",") </td><td>","ht ml","bor der","</td></tr><tr><td >","ead ><","▁ ±","o li","i s","▁r e","ti on","a th","oli d",">< bold>","▁align=\"char \">","▁ m","</ bold","#n# <","i c","mml :","lin k","mml: m","a m","▁o f","a t","▁align=\"char \"","p e=\"","i g","▁ p","a s","▁ b","u s","▁colspan=\"1\"> 0.","▁col span=\"","</ italic>","▁colspan=\"1\" /><td","g /","▁ <","in g","4 .","▁ 0.","▁ an","0 </td><td","id =\"","▁ x","▁ d","▁ in","tyle =\"","▁s tyle=\"","></td ></tr><tr><td","n s","5 .","- ty","-ty pe=\"","1 </td><td","\t \t","t p","c ol","/ /",": //","ht tp","1 99","s tyle","t ;","=\" http","w .","ww w.",":// www.","▁ w","ro u","2 </td><td","or g/","=\"http ://www.","ns :","▁x ml","▁xml ns:","h 4","body ><","h ead><","html ><","x link","body ></","▁re f","/ M","6 .","=\"http://www. w","3. org/","=\"http://www.w 3.org/","=\"http://www.w3.org/ 199","1 0","2 0","></tr ></","▁r id=\"","/M ath","▁ref -type=\"","▁s olid","g rou","▁an d","5 </td><td","3 </td><td","border -","b i","7 .","g e","4 </td><td","</ xref","8 .",">< italic>","a tion","su b","a k","< sup>","C T","o m","t er","e l","00 00","6 </td><td","#n# </td><td","b re","r ig","e m","bre ak","break /","5 0","ac k","8 </td><td","b r","/ ></tr><tr><td","▁ e","7 </td><td","e c","9 .","</td><td> 1","▁1 p","grou p","o s","▁ a","▁colspan=\"1\"> 2","▁( 1","▁row span=\"","▁1p x","u l","</xref >","▁ to","</ italic","▁th e","u m","9 </td><td","< xref","/><td /><td","bi br","▁ref-type=\" bibr",">< col","</td><td> 0.","break/ >","2 \"",">< mml:m","▁ C","le s","1 2","u r","▁( 0.","</ sup",") </td></tr><tr><td","sub >","c e","▁ n","▁ h","▁style=\" border-","t e","r am","u n","i on","s id","▁b l","1 3","} </","P E","▁ =","</ bold>","</th><th >","9 /","rig h","righ t\"","▁align=\" right\"","▁colspan=\"1\"> #n#<","l t;","</bold ></td><td","& lt;","u les","border :","<hr/ ></td></tr><tr><td","v e","1 4","▁valign=\"bottom \"","group s","▁ {","D O","▁colspan=\"1\"> 3","/ ><col",">< hr/","▁ 2","▁ S","1 5","▁ table","▁f ram","><tr ><td","style ></","▁bl ack","M L","▁r ules","▁black ;","table ></","Y PE","▁ td","▁table ,","DO CT","DOCT YPE","style >","▁th ,","h4 ><","! DOCTYPE","> \n","▁ html><","html >\n","▁< !DOCTYPE","body>< table","head>< style>","head>< body><table","html>< body><","body></ html>\n","}</ style></","▁{ border:","▁rules =\"","▁black; }</style></","h4>< head><style>","▁html>< html><body><","▁black;}</style></ head><body><table","▁html><html><body>< h4","table></ body></html>\n","▁fram e=\"","=\"http://www.w3.org/199 9/","▁xmlns: xlink","xlink \"","=\"http://www.w3.org/1999/ xlink\"","▁xmlns:xlink =\"http://www.w3.org/1999/xlink\"","></tr></ t","t body","body></ table></body></html>\n","></tr></t body></table></body></html>\n","</ sup>","ti c","o c","es \"","sid es\"","h sides\"","▁frame=\" hsides\"","▁rules=\" groups","▁rules=\"groups \"","1 6","ML \"","8 /Math","mml =\"http://www.w3.org/199","▁xmlns: mml=\"http://www.w3.org/199","/Math ML\"","8/Math /MathML\"","▁xmlns:mml=\"http://www.w3.org/199 8/Math/MathML\"","1. 0","th ead><","><th ead","></tr></ thead><","></tr></thead>< tbody","i l","▁( 2","▁ A","2 \">","▁html><html><body><h4 >","</ h4><head><style>","< break/>","></ th><th","</ th","1 1","i a","s olid","i m",": solid","o d","e t","a ge","</td><td> 2","1 7","</td ></tr></tbody></table></body></html>\n","0. 00","% )</td><td","1 8","p >","▁colspan=\"1\"> N","▁colspan=\"1\" ><bold>","▁ P","▁rowspan=\"1\" >","▁ al","></tr></thead><tbody ><tr><td","▁ span=\"1\"","▁ [","us e","▁ I","▁colspan=\"1\"> 1.","▁colspan=\"1\"> C","▁colspan=\"1\"> 4","lin e","▁ M","><tr ><th","1 9","▁ pa","3 0","r ow","v er","i th","c o","or :","c h","y s","p h","i f","2 5","t -","0000 00","</ mml:m","# 000000","or m",") <hr/></td><td","r a","\t\t \t\t","#n# \t\t\t\t","#n#\t\t\t\t \\","o t","- f","><thead ><tr><th","a ti","▁0. 50","▁ref-type=\"bibr \"","▁0.50 p","n d","▁ T","re s","▁ref-type=\"bibr \">","</td ></tr><tr","▁ g","▁< italic>","t s","▁valign=\"top\" ><td","* *","▁colspan=\"1\"> A","9 5","▁colspan=\"1\"> S","▁w ith","▁( 3","2 4","▁rid=\" B","e </td><td","2 3","▁colspan=\"1\"> 5","C A","▁p ro","▁colspan=\" 2\"","u c","▁colspan=\"1\"> P","</xref> ]","▁span=\"1\" /><col","e ar","▁ N","▁char=\" (","▁ <hr/></td><td","to r","C R","</sup ></td><td","4 0","</th ></tr></thead><tbody><tr><td","#n#< italic>","pa c","</italic ></td><td","< italic>","m ent","▁f or","▁c on","▁rules=\"groups\" ><thead><tr><th","▁ 1.","at e","▁ 3","▁colspan=\"1\"> M","2 2","▁th in","▁colspan=\"1\"> 0.0","o g","</td><td> 3","▁char=\"( \"","▁colspan=\"1\" /></tr><tr><td","▁ border-","; \"","s </td><td","6 0","00 0","G A","k age","% )","pac kage","use package","usepackage {","i r","e x","▁align=\"right\" >","></ mml:m","</bold ></th><th","2 8","2 7","▁colspan=\"1\" ><italic>","#n#\t\t\t\t\\ usepackage{","2 6","▁ H","t u","#n#< bold>","▁colspan=\"1\"> −","l y","▁colspan=\"1\"> 6","3 3","▁( 4","▁style=\"border- bottom","it y","< sub>","</ p","d ing","▁e t","el l","▁ 0.0","0. 8",">< p>","s e","▁e x","▁0.50p t;","▁al .","4 5","e f","▁ or","2 9","▁ y","q u","ic al","o p","▁colspan=\"1\"> T","1 </td></tr><tr><td","▁ D","0. 7","▁( 1.","▁ R","▁rid=\" CR","rig ht","0. 9","▁ #000000","3 5","▁s co","▁valign=\"top\" >","</ sub>","▁rowspan=\" 2\"","▁( 5","4 8","u t","▁ tr","0. 5","1 </td><td>","3 \"","▁colspan=\"1\"> 7","t ed","es s","3 8","▁ l","3 6","lef t","><hr/ ></td><td","3 7","▁ B","4 7","en ce","or: #","4 6","▁style=\"border-bottom :solid","% )</td><td>","as e","0. 6","▁ ac","a le","as s",") </td></tr><tr><td>","</bold> #n#","n \"","grou nd","/ ><th","▁rowspan=\" 2\">","ack ground","ent s","G T","li s","% </td><td","left :","4 9","▁thin \"","in line","><hr/ ></td></tr><tr><td","8 0","▁colspan=\"1\"> R","</td><td> 1.","e an","u p","/><td >","▁colspan=\"1\"> 2.","▁ t","3 9","▁ L","i an","▁align=\"left\" ><bold>","▁ F","▁align=\"left\" /><td","▁ </td><td","7 5","/></tr><tr><td >","1 ,","4 4","I n","a d","▁ on","▁colspan=\"1\" ><","1 )</td><td","i v","- col","▁ E","al u","ackground -col","6 9","at ed","▁ id=\"","▁#000000 \"","i al","▁align=\"center\" ><bold>","3 4","▁style=\" b","7 0","▁colspan=\"1\"> 8","▁ G","▁[ <xref","e g","g t;","& gt;","e p","▁colspan=\" 2\">","id th","m ath","▁ 5","f f","n </italic>","a p","6 5","3 \">","er s","2 )</td><td","</td><td> 5","00 </td><td","3 )</td><td","a y","▁style=\"b ackground-col","6 7","t- link","y m","</italic> #n#","2 1","▁ref-type=\" table","▁ref-type=\"table -f","9 0","▁ 20","▁colspan=\"1\"> H","▁sco pe=\"","▁char=\" ±","▁d is","▁style=\"background-col or:#","te x","ar y","</italic ></","▁( 6","▁w idth","i es","▁ 2.","▁c om","an d","p er","▁valign=\"bottom\" ><bold>","C C",") </th><th","A </td><td","▁colspan=\"1\"> D","▁colspan=\"1\">#n#< bold>","▁( m","– </td><td","ul a","▁width =\"","▁ at","r i","<sup> a","3 2","4 )</td><td","s ion","% \"","▁align=\"left\"> 1","▁colspan=\"1\"> F","</bold> #n#</td><td","4 \"","am s","b er","▁( <italic>","8 5","Y es","in e","- 0","▁colspan=\"1\"> 9","▁char=\"± \"","▁ref-type=\"table-f n\"","– 1.","▁ O","></tr><tr ><th","8 )</td><td","4 2","th er","▁c h","4 3","} #n#\t\t\t\t\\usepackage{","▁colspan=\"1\"> L","p or","▁1 0","- </td><td","ti m","an t","u b","6 6","j us","en d","d ding","5 \"","p le","7 )</td><td","&lt; 0.00","pa dding","ro m","/><td/><td /><td/><td","row ><mml:m","▁colspan=\"1\"> G","</td><td> N","▁< xref","A T","▁colspan=\"1\"> 3.","p ec",">< sup>","▁c ell","</td><td> −","</td><td> 0.0","6 )</td><td","6 8","▁colspan=\"1\"> B","5 5","ac ter","a in","▁pa ti","▁( 7","orm ula","▁ le","▁0. 00","c c","▁char=\". \">","alu e","▁style=\"border- right","t ent","i ve","▁ +","e al","on e","▁y ear","-f ormula","7 8","▁colspan=\"1\"> 0</td><td","9 8","inline -formula","</sup> #n#","</td><td> 4","ti v","ar e","link :","▁x link:","s .","9 )</td><td","- c","2. 0","an s","</td><td> 0","▁colspan=\"1\"> #n#",") ,","f er","▁ 4","▁colspan=\"1\"> (","an c","▁colspan=\"1\"> E","en c","2 ,","h e","▁( n","7 7","h ref","▁xlink: href","▁align=\"char\"> 0.","▁style=\"border-right :solid","</bold ></","▁align=\"left\"> N","es t","5 )</td><td","e k","3 1","te in","</sup ></","a g","8 8","▁s ta","▁align=\"left\"> C","6 4","▁colspan=\"1\">1 </td><td","▁align=\"center\"> 1","ti f","</mml:m o","</p ><p>","um ent","top :","om e","i z","</bold ></td></tr><tr><td","▁( %)","▁( 8","- left:","▁colspan=\"1\">#n#< italic>","padding -left:","▁style=\" padding-left:","▁align=\"left\"> S","c l","ar d","[ <xref","re d","ter n","5 8","5 7","▁colspan=\"1\"> I","</mml:m i","oc ument","9 7","2 </td></tr><tr><td","ra ph","▁align=\"left\"> 0.","ig h","s t","▁d a","ati ve","v el","▁p er","▁b y","ti ve","▁align=\"left\"> P","▁r es","bold ><italic>","▁align=\"left\"> A","or: #000000","95 %","G G","ex t-link","▁valign=\"top\"><td >","d ocument","eal th","i o","5 6","▁col or:#000000","▁colspan=\" 3\"","ig ht","U n","p e","▁colspan=\"1\"> 4.","▁( 2.","▁ #n#\t\t\t\t\\usepackage{","▁#n#\t\t\t\t\\usepackage{ ams","▁align=\"center\"> 0.","o u","▁ -","▁a d","5 9","a b","▁xlink:href =\"","en s","ot al","an ce","▁colspan=\"1\">1 0","3 </td></tr><tr><td","</bold ><hr/></td><td","▁scope=\" row","▁s tu","▁scope=\"row \"","▁colspan=\"1\"> .","▁colspan=\"1\"> 0","7 9","m in","a </td><td","l o","▁( 0.0","▁color:#000000 ;\"","it em","tr ol","2 </td><td>","3. 0","um ber","it ion","7 6","N A","1 <hr/></td><td","5. 0","4 \">","s ,","v es","+ </td><td","tif y","▁ is","T T","▁align=\"left\"> M","jus tify","n g","li c","▁align=\" justify","10 %\"","▁ k","▁border- bottom","▁C I","▁c o","* </td><td","▁( 0","9 6","un der","ol og","b s","raph ic","▁ li","▁ 6","</td><td> 6","A A","▁s tr","p t","is tic","4 1","▁align=\"left\"> 2","▁style=\"padding-left: 10%\"","</italic> #n#</td><td","▁al. ,","▁border-bottom :","- 1","8 7","▁ W","3 ,","w e",". </td><td","▁colspan=\"1\">0. 00","▁ &lt;","8 9","i p","if ic","▁colspan=\"1\"> –</td><td","5 2","8 6","S D","▁pati ents","y l","/ ></","><mml:m o","4 </td></tr><tr><td","▁ ×","▁ 3.","▁b e","▁f rom","al l","on th","lis t-","n o","▁align=\"left\" ><italic>","r s","I I","<sup> b","</td><td> –","▁rid=\" T","g en","o ur","</ sub","▁ 0","▁in f","▁colspan=\"1\"> O","▁d e","</th ></tr><tr><th","▁ %","list- item","2 00","o re","▁id=\" M","- math","an ge","▁w e","</mml:m n","5 4","3 </td><td>","4. 0","▁ as","1 </td></tr><tr><td>","ig n","</xref> ,","i >","1 00","] </td><td","y </td><td","acter istic","▁align=\"left\" /><col","am p","7 4","p </italic>","ea t","▁align=\"left\"> 1.","▁( 9","▁ V","c tion","▁align=\"left\"> T","o od","▁ im","</sup></ xref","5 3","n >","▁valign=\"bottom\"> 0.","i b","▁w h","is t","k e","▁pa r","n e","▁align=\"justify \"","- g","ation s","▁g en","▁m e","p ro","as t","o </td><td","▁(<italic> n</italic>","res sion","g n","▁in ter","▁( 3.","er e","p on","d uc","8 4","- m","ul ar","<break/> (","▁colspan=\" 4\"","</td><td> 7","▁align=\"char\"> 1","▁pro tein","▁( −","at er","ar ia","u d","I E","▁colspan=\"1\">#n#< break/>","▁ <hr/></td></tr><tr><td","▁colspan=\"1\"> 5.","▁0.50p t\"","m o","><mml:m row><mml:m","1\" >","5 </td></tr><tr><td","on g","6 3","1 )</td><td>","9 4","ati ves","▁colspan=\"1\" /><th","a v","7 2","il d","▁colspan=\"1\"> #n#</td><td","▁( <xref","6. 0","</sup> #n#</td><td","</td><td> 2.","od el","6 2","6 \"","o .","7 3","▁border- right","▁style=\"border- left:","▁s e","C </td><td","</sup></td><td >","li ty","▁border-right :","c re","-c on","</th></tr></thead><tbody><tr><td >","8 3","▁align=\"center\"> 1.","▁ ass","- 1.","- 3","▁border- top:","id e","p o","it ive","></mml:m ath","ec tion","l ow","n am","▁colspan=\" 3\">","t al","▁align=\"center\"> 2",". </h4><head><style>","G en","tex -math","{ document","es </td><td","e w","tern atives","under line","– 1","u re","tor y","al ternatives","▁m onth","▁p re","% )</td></tr><tr><td","if fer","▁ –","▁align=\"center\" /><col","IE q","5 ,","8 2","</mml:mo ><mml:m","▁valign=\"bottom\"> 1","5 \">","} #n#\t\t\t\t\\","em ale","as ed","ff ec","▁colspan=\"1\"> 2</td><td","▁ &gt;","▁year s","or k","><mml:mo >","</ p>","▁m ed","▁re g","▁stu dy",") </th><th>","9 2","9 3","P </italic>","u g","▁colspan=\"1\"> 20","▁( %)</td><td","7. 0","acteristic s","▁ ar","pa r","5 1","▁ group","an g","</td><td> 8","orm al","6 </td></tr><tr><td","</td><td> C","v ent","▁( 4.","- s","▁ 4.","<sup> −","▁ us","▁ tim","▁p os","il l","▁align=\"left\"> 3","▁colspan=\"1\">#n#<break/> #n#</td><td","S </td><td","r im","▁colspan=\"1\"> -","3 )</td><td>","></mml:m row","er v","4 ,","7 1","▁colspan=\"1\"> &lt;","ation </td><td","ow n","t em","▁ U","s s","os e","▁p l","8. 0","<sup> 2","▁I n","▁align=\"left\"> R","al ys","$ $","o us","▁h ealth","▁f ac","▁valign=\"bottom\"> 1.","▁colspan=\"1\"> 6.","er ence","2. 5","8 </td></tr><tr><td","7 </td></tr><tr><td","▁p h","aria ble","D </td><td","</xref>] </td><td","m a","▁2 00","-g raphic","▁colspan=\"1\"> -</td><td","inline -graphic","</sup ></td></tr><tr><td","r ac","i R","-con tent","6 1","▁rowspan=\"1\" ><bold>","2 )</td><td>","** *","▁html><html><body><h4> C","▁ −","</xref>] </td></tr><tr><td","p l","▁s ub","▁align=\"char\"> 0.0","e ter","▁colspan=\"1\"> W","▁ 7","col group","▁in d","Yes </td><td","▁align=\"char\"> 1.","E -0","7 \"","it al",") <hr/></td></tr><tr><td","▁colspan=\" 5\"","A C","anc er","▁valign=\"bottom\"> 2","▁n ot","c om","G C","<sub> 2","#n# </td></tr><tr><td","por t","4 )</td><td>","</italic ><","1 0</td><td","▁colspan=\"1\"> 1.0","A ge",") </td></tr><tr","bi lity","lin ical","t us",". 0","ul ation","</td><td> 10","▁rules=\"groups\"><thead><tr><th >","il y","▁ 8","</bold></ th","on -","▁( 5.","▁b et","i um","lis t","or t","- 00","9 </td></tr><tr><td","oc i","▁< sup>","▁th at","▁colspan=\"1\"> V","R </td><td","▁ K","▁ac tiv","we en","></ inline-formula","c t","9. 0","su l","</td><td> A","</xref ></td></tr><tr><td","</td><td> S","m un","- v","</td><td> P","</td><td> M","0. 2","▁tr ans","m on","– 2.","▁align=\"left\"> H","</td><td> (","</italic></ bold","l u","▁align=\"left\"> D","><mml:m ath","0. 3","▁colspan=\"1\"> In","▁dis ea","su re","c ri","ta tion","ar ian","▁rowspan=\" 3\"","</td><td> 9","▁ en","▁v alue","ed uc","8 1","s et","0. 4","un d","▁colspan=\"1\"> 7.","</td><td> -","</p ></td><td","pa n","7 )</td><td>","▁rid=\"T N","▁colspan=\"1\"> 3</td><td","▁s ur","eat ment","nam ed","</td><td> 3.","named -content","- 2","▁colspan=\"1\"> &lt;0.00","▁align=\"left\"> F","▁ qu","/><td /></tr><tr><td","▁( 1.0","6 )</td><td>","6 ,","f ter","9 1","T otal","▁( 95%","▁rowspan=\" 3\">","▁d iffer","M I","0. 1","im al","p tion","tr ic","8 )</td><td>","5 )</td><td>","▁ex t-link","▁ext-link -type=\"","</td><td> #n#<italic>","on d","▁da ta","▁align=\"left\"> 5","▁valign=\"bottom\"> -","u al","▁( 6.","ti s","d e","os t","is k","▁ref-type=\" f","alys is","▁bet ween","</ ext-link","▁align=\"char\"> −","▁le vel","▁ 5.","ng th","><col group","/></ colgroup","3 <hr/></td><td","R ef","▁align=\"center\"> 3","▁align=\"center\"> 0.0","▁align=\"left\"> 0.0","▁align=\"left\"> 4","tor s",") </td></tr></tbody></table></body></html>\n","</td><td> #n#<bold>","▁m ean","ali ty","it e","9 )</td><td>","ty pe","▁n e","▁rid=\" t","g re","y ear","▁c l","m ol","▁align=\"left\" /></tr><tr><td","k ing","C I","><mml:m i>","o b","</td><td>0. 00","▁colspan=\"1\">#n#< p>","l l","▁align=\"char\"> 2",") </bold></td><td","ac e","▁s h","i ed","▁( 20","/ L","F F","A r","▁ 1.0","os is","1 2</td><td","tex t","on trol","</sub ></td><td","▁colspan=\" 4\">","▁w as","▁ref-type=\"f n\"","vent ion","M ean","- C","▁ un","▁we ek","v i","▁tr eatment","▁valign=\"bottom\" ><italic>","O R","▁align=\"left\"> L","▁colspan=\"1\">< break/","</xref ></td><td","tic i","▁tim e","▁colspan=\"1\">1 2","os p","▁( 7.","t ing","▁align=\"left\"> B","1 -","7 ,","/><td /></tr><tr><td>","▁colspan=\"1\"> –","▁m o","g/ d","{ \\","4 <hr/></td><td","s is","1 –",". 00","▁colspan=\"1\"> +</td><td","A S","▁colspan=\"1\"> 4</td><td","▁a p","o x","in al","</bold ><","#n#< break/>","underline >","8 \"","lin g","8 ,","no te","▁align=\"center\"> -","c ent","h y","1 1</td><td","enc y","t en","-v alue","un ction","3. 3","ar g","</xref> )</td></tr><tr><td","f orm","9 ,",". .","▁( 10","▁colspan=\"1\"> 8.","▁d ia","% </td></tr><tr><td","5 –","e th","▁con trol","e ver","N o","le d","▁align=\"left\"> E","></ th","- 000","▁a ge","▁< bold>","▁v s.","f s",") <break/>","2 <hr/></td><td","a x","▁ are","i x","tu re","G GA","ase line","▁m in","6. 7","ic e","▁( SD","I V","P ro","1 5</td><td","▁scope=\" col","▁scope=\"col \"","S A","▁colspan=\"1\"> U","<sup> c","re l","> #n#</td><td","▁p res","▁c ancer","a ble","ed </td><td","▁ ≥","c ess","5 <hr/></td><td","▁html><html><body><h4> S","</xref> #n#</td><td","▁( 8.","▁s up",">< list-item","></ list-item","<sub>2 </sub>","▁c or","en tr","1 3</td><td","re e","i or","s c","N </italic>","t in","- note","T </td><td","▁sco re","y c","ar i","g if","</sup></xref ></td><td","} $$","1 4</td><td","gif \"","▁ border",">< bold><italic>","▁o ut","6 <hr/></td><td","▁d ur","▁c are","▁char acteristics","▁a fter","1. 5","6 \">","▁valign=\"bottom\"> 0.0","C h","</td><td> T","C D","▁an alysis","g/ m","</p ></list-item","/><td/><td >","▁ use","▁ex p","▁border =\"","y n","▁da ys",">< inline-graphic","i re","ed ian","bi b","▁colspan=\" 6\"","▁span=\"1\" /","S E","</bold ><hr/","▁s pec","▁align=\"left\"> #n#<italic>","▁ 9","</td><td> 4.","CT T","▁colspan=\"1\"><break/ ></td><td","▁s ign","/ A","alig n","▁sta tus","1 6</td><td","f n","ic h","▁align=\"center\"> 4","a ve","tic al","ur r","▁colspan=\"1\">0. 5","▁e ffec","\" ><td","eg ative","▁( 9.","v arian","( 1","▁ 6.","▁ac id","’ s","▁c ar","ch o","▁colspan=\"1\">0. 8","▁month s","e ta","▁colspan=\"1\"> 5</td><td","▁align=\"left\"> 6","_ 20","2. 7","▁m odel","em ent","G </td><td","es ,","▁colspan=\"1\"> —","8 <hr/></td><td","▁h y","▁border=\" 1\"","3. 5","u e","tic le","- d","amp ;","& amp;","▁valign=\"bottom\"> 0","2. 9","ing </td><td","a il","7. 5","%) </td></tr><tr><td>","S T","2. 2","ym b","7 \">","A n","olog ical","r en","▁( N","▁< break/>","#n#< sup>","▁w ork","1. 4","▁ am","f on","er y","</xref> )</td><td","1. 7","▁N o","spa ce","▁colspan=\"1\"> 9.","9 \"","r it","s </th><th","am ily","▁colspan=\"1\">0. 9","▁s p","G CA","iR -","▁colspan=\"1\">0. 2","rou p","▁colspan=\"1\">0. 7","▁colspan=\" 5\">","j ec","ys tem","um or","cl ass","▁colspan=\"1\">1 3","% )<hr/></td><td","▁re l","▁colspan=\"1\"> n","p os","} {","</td><td>– </td><td>–",") </bold></th><th","▁align=\"center\"> 5","▁con tent","▁align=\"left\"> G","1. 2","▁html><html><body><h4> P","▁ </td></tr><tr><td","2. 6","2. 8","arg in","i ver","2. 3","at es","tr o","2. 4","r g","▁colspan=\"1\"> K","ol low","▁<italic> n</italic>","E x","res s","A P","▁h igh","▁style=\"border- top:",", 0","</italic ><hr/></td><td","</p> #n#</td><td","</td><td> 20","▁align=\"left\"> –</td><td","1 7</td><td","1. 3","u tion","h i","un g","eg in","▁m ath","- b","▁n o","f ic","; border-","Q u","I </td><td","G F","</td></tr><tr><td> S","– 2","3. 8",">< xref","A R","▁ μ","le ngth","am ple","▁valign=\"top\" ><tr><td","▁y ou","t </td><td","▁align=\"left\"> −","▁valign=\"bottom\"> 3","1. 8","</mml:mo><mml:m n>","osp ital","tici pan","w as","gif\" /></","></mml:m sub","c or","- 69","▁r isk","ta in","tr ac","k n","▁align=\"char\"> 3","▁colspan=\"1\">1 5","▁align=\"center\"> -</td><td","/></colgroup ><thead","▁disea se","1 8</td><td","0 \"","1. 6","▁res pon","on s","ea s","om a","om en","/ ></tr></tbody></table></body></html>\n","L </td><td","as es","cc c","▁w ere","ec h","3. 7","▁pati ent","▁align=\"center\" ><italic>","▁rules=\"groups\"><thead><tr><th /><th","3. 6","5. 5","▁colspan=\"1\">1 4","it s","4. 5","▁width=\" 1","</td><td> R","99 .","▁ bo","▁e v","99 </td><td","l as","▁colspan=\"1\">0. 6","m s","G GT","s ymb","od d","><list-item ><p>","X </td><td","[ 12","▁activ ity","▁(1 00","ar k","▁S D","a ta","0.00 0","b egin","><colgroup ><col","< bold>","▁colspan=\"1\">0. 3","\\ end","<sup>2 </sup>","9 <hr/></td><td","i le","▁colspan=\"1\">< xref","id ence","▁align=\"left\"> (","▁ 7.","5. 7","min imal","le c","▁1 2","pt ]",">< tex-math","begin {document","\\end {document","▁colspan=\"1\"> 6</td><td","}</ tex-math","\\end{document }</tex-math","▁n umber","</italic></ bold>","o ut","rs fs","varian t","ts }","▁( I","bs y","\\ document","math rsfs","ams math","fon ts}","symb }","\\document class","em argin","io us","up gre","upgre ek","ys ym","sid emargin","was ysym","odd sidemargin","pt] {","wasysym }","set length","{\\ oddsidemargin","}{ -69","[12 pt]{","\\documentclass [12pt]{","setlength {\\oddsidemargin","}{-69 pt","\\documentclass[12pt]{ minimal","setlength{\\oddsidemargin }{-69pt","iz e","og en","M </td><td","</italic> ,","▁ </italic>","1 /","▁me ta","▁ch ild","T he","ur al","▁style=\"background-color:# ccc",">< alternatives","alternatives ></inline-formula","▁style=\"background-color:#ccc \"><td","E R","▁id=\" IEq","▁math variant","▁mathvariant =\"","P </td><td","▁align=\"left\"> 0","r ug","A D","T C","c in","-note -000","▁ref-type=\"bibr\"> 20","_ IEq","▁style=\"border-bottom :","><alternatives ><tex-math","}#n#\t\t\t\t\\usepackage{ mathrsfs","}#n#\t\t\t\t\\usepackage{ amsmath","}#n#\t\t\t\t\\usepackage{ upgreek","}#n#\t\t\t\t\\usepackage{ wasysym}","▁#n#\t\t\t\t\\usepackage{ams bsy","▁#n#\t\t\t\t\\usepackage{ams fonts}","▁#n#\t\t\t\t\\usepackage{ams symb}","}#n#\t\t\t\t\\ begin{document","}#n#\t\t\t\t\\ setlength{\\oddsidemargin}{-69pt","\\documentclass[12pt]{minimal }#n#\t\t\t\t\\usepackage{amsmath","}#n#\t\t\t\t\\usepackage{mathrsfs }#n#\t\t\t\t\\usepackage{upgreek","▁#n#\t\t\t\t\\usepackage{amsbsy }#n#\t\t\t\t\\usepackage{mathrsfs}#n#\t\t\t\t\\usepackage{upgreek","}#n#\t\t\t\t\\setlength{\\oddsidemargin}{-69pt }#n#\t\t\t\t\\begin{document","\\documentclass[12pt]{minimal}#n#\t\t\t\t\\usepackage{amsmath }#n#\t\t\t\t\\usepackage{wasysym}","▁#n#\t\t\t\t\\usepackage{amsbsy}#n#\t\t\t\t\\usepackage{mathrsfs}#n#\t\t\t\t\\usepackage{upgreek }#n#\t\t\t\t\\setlength{\\oddsidemargin}{-69pt}#n#\t\t\t\t\\begin{document","s ta","Ar ticle","▁colspan=\"1\"> p","gif\"/></ alternatives></inline-formula","2 -","</td></tr><tr><td> P","</td><td> +","ate g","ch em","▁col or:#","▁align=\"left\"> 7","el f","4. 3","_ Article","▁colspan=\" 7\"","</td><td> F","</td><td>0 </td><td>0","i li","p tom","_Article _IEq","▁colspan=\"1\">0. 4","rim ary","4. 7","enc es","▁t est","</td><td> 1.0","ar ge","▁( year","5. 6","8. 5","\\end{document}</tex-math ><mml:math","ia </td><td","em og","1. 9","f e","m </td><td","1 9</td><td","▁10 <sup>","▁colspan=\"1\">1 6","an n","▁differ ent","></mml:math ><inline-graphic",")</td><td> 0.","N umber","</italic></td><td >","in </td><td",". </td></tr><tr><td","▁ 30","</italic ></td></tr><tr><td","▁o ver","3. 2","3. 4","3. 9","</td></tr><tr><td> C","▁ \"","▁a g","ap y","ation al","5. 8","N S","=\" 5\"","</italic>< sub>","▁span=\"1\"/ ><thead","4. 4","T A","6. 5","ea ch","▁ ta","4. 8","▁( c","y r","▁rules=\"groups\" ><thead","▁ J","ym ptom","c ome","▁an ti","▁colspan=\"1\">N A</td><td",") ;","▁align=\"left\"> 0</td><td","ver age","id ent","sup ><bold>","D 9","▁colspan=\"1\"> +","></mml:m row><mml:m","▁html><html><body><h4> D","▁stu d","- 5","4. 6","re at","▁( %)</td><td>","▁colspan=\"1\"> [<xref","▁ref-type=\" ref","7 <hr/></td><td","▁valign=\"bottom\"> S","▁#000000 ;\"","2 0</td><td","ic ro","el y","▁ref-type=\"ref \">","s y","></ h4><head><style>","▁html><html><body><h4 ></h4><head><style>","ol e","▁align=\"center\"> 0</td><td","▁al l","align :","i ent","▁a bo","▁o ther","▁#n#\t\t\t\t\\usepackage{amsbsy}#n#\t\t\t\t\\usepackage{mathrsfs}#n#\t\t\t\t\\usepackage{upgreek}#n#\t\t\t\t\\setlength{\\oddsidemargin}{-69pt}#n#\t\t\t\t\\begin{document }$$","▁rules=\"groups\" ><col","▁align=\"center\"> 6","5. 4","– 3","▁#000000\" ><th","▁align=\"left\"> 8","▁rid=\" R","▁us ed","▁colspan=\"1\"> &gt;","</td><td> L","sul ts","ce p","▁valign=\"top\" ><tr><th","k g","8. 6","b l","o id","E M","▁border=\"1\" ><colgroup><col","a ,","</bold>#n# </td><td>#n#<bold>","▁colspan=\"1\"> Yes</td><td","G CT","▁ &amp;","▁align=\"left\"> I","1 )","is s","</td><td> H","ent al","re qu","( 2","5. 3","an k","▁valign=\"bottom\"> C","8. 8","r in","▁s c","F </td><td","er al","▁valign=\"bottom\"> 4","▁ass oci","cho ol","d ition","ac h","** </td><td","</bold>#n# </th><th","</td><td> D","▁C h","▁align=\"left\"> 1</td><td","b in","5. 9","6. 4","▁colspan=\"1\"> 8</td><td","4. 2","7. 8","▁ type","e u","▁( M","4. 9","></th ></tr><tr><th","</bold><hr/ ></th><th","ation ,","im e","▁dia gn","ul d","on ic","to n","6. 8","▁colspan=\"1\">− </td><td","▁colspan=\"1\">1 0</td><td","0 1","- i","at ing","A d","am e","▁colspan=\"1\">1 1","▁valign=\"bottom\"> 5","o v","▁align=\"center\"> N","vi ew","u te","▁align=\"char\"> 4","▁(year s","</sup ><hr/></td><td","▁align=\"left\"> O","jus ted","</xref>, <xref","</td></tr><tr><td> M","5. 2","▁valign=\"bottom\"> P","6. 6","▁colspan=\"1\">N o</td><td","▁align=\"left\" ><","▁content -type=\"","</td><td> &lt;","6. 3","<sup>a </sup></td><td","▁( C","ec ond","▁r ati","if ied","in ding","B P","p lic","D D","▁colspan=\"1\">1 8","▁colspan=\"1\">1 ,","8. 9","_ 00","in t","▁colspan=\"1\">— </td><td","▁colspan=\"1\">1 7","ul ti","▁in cl","cri ption","▁valign=\"bottom\"> (","olog y","al </td><td","n ormal","6. 9","- -","8. 3","s </h4><head><style>","▁( ±","1. 1","7. 6","</td><td> .","h is","▁th an","c .","ess ion","▁ 9.","▁colspan=\"1\"> 7</td><td","N P","top :solid","</bold></td><td >","an e","d ro","o use","C CA","urr ent","a ys","it ies","_ 0","- bib","um an","ticipan ts","</italic ></th><th","7. 7","op ulation","8. 7","▁0.00 1","▁m ea","tr y","M P",")</td><td> 1","▁1 </td><td","▁f ollow","</th></tr><tr><th >","mon o","▁dur ing","os ph","ty p","▁c linical",") </th></tr></thead><tbody><tr><td","▁colspan=\"1\">< bold><italic>","ver y","▁s ystem","▁( P","b et","- P","▁r ate","6. 2","1 F","▁f unction","▁ Un","7. 4","▁align=\"center\" /><td","▁d i","▁ up","S C","&lt;0.00 1","8. 4","▁b i","▁h ave","▁th er","a les","mono space","▁colspan=\"1\"> Y","▁P ro","▁colspan=\"1\">− 0.","▁valign=\"bottom\"> M","A L","us ion","▁align=\"center\"> 1</td><td","▁ /","l uc","R I","B </td><td","▁ em","▁style=\"border- top:solid","▁d ec","▁m ore",")</td><td> 1.","</th><th> #n#<bold>","7. 9","</td></tr><tr><td /><td","▁align=\"center\"> 7","▁in cre","▁me th","▁ </th><th","7. 3","▁v s","er </td><td","00 0</td><td","▁s t","2 5</td><td","▁l ow","ys ical","D L","▁m an","▁align=\"left\"> 9","es tion","vel op","am in","red ic","g h","emog raphic","% <hr/></td><td","▁ it","▁colspan=\"1\">( <xref","n is","▁valign=\"bottom\">- <hr/></td><td","9. 5","oc ial","o ther","8. 2","- M","▁colspan=\"1\">3 0","or y","▁ groups","▁align=\"left\"> 10","▁ %)</td><td>","a z","and ard","▁( p","2. 1","▁m em","▁d es","\" /","▁colspan=\"1\"> m","r on","o und","/ m","▁cell s","▁inf orm","kn own","</italic> #n#<","is ion","</bold>#n# </th><th>#n#<bold>","▁align=\"char\"> 5","er g",") <xref","s tr","ific ant","por ted","B F","n ess","bottom :solid","I C","ati ent","50 \"","is on","▁O R","▁p o","▁d ep","2 –","n ow","</td><td> B","r u","▁colspan=\"1\">P ro","S S","s a","os itive","▁valign=\"bottom\"> N","▁ educ","R T","n one","></td ></tr></tbody></table></body></html>\n","in d","▁colspan=\"1\">N o","ale </td><td","h ort","it is","▁we ight","▁colspan=\"1\">A ge","▁bl ood","at e</td><td","n a","▁0. 000","▁10 <sup>−","k in","F N","▁align=\"center\"> 8","ir st","▁colspan=\"1\">C h","/ ></tr><tr","</xref ></","I D","<sub> 3","e tic","</sup ></th><th","▁(%) </th><th","c er","or der","▁align=\"left\"> -","▁exp ression","ra in","ear ch","</bold></td><td ><bold>","#n# </th><th","In ter","9. 4","e li","S P","m is","▁0. 5","C O","c ing","▁d ay","▁colspan=\"1\">T otal","oc k","▁rowspan=\" 4\">","y pe","ing le","</bold></th ></tr></thead><tbody><tr><td","en g","3 –","GA A","r y","▁(m m","oc y","ef ore","- A","B C","har acteristics","uc le","l m","ra de","</td></tr><tr><td> #n#<italic>","</td><td>N o","m ed","v as","▁cl ass","h av","9. 6","et ch","▁1 5","</bold></th ></tr></thead><tbody","v ed","ic ation","Q R","▁ 50","ari ate","▁colspan=\"1\"> Un","▁( s","3. 1","e ight","al se","▁align=\"char\"> 0.00","I N","L -","p x","▁( d","id ual","<sup>a </sup>#n#","7. 2","▁ Y","e e","tu dy","▁0. 2","▁colspan=\"1\">− 0.0","▁d o","V ariable","9. 7","s chem","s es","▁inter vention","▁ 2</td><td","ro ss","C l","sup ><italic>","R NA","▁fac tor","* </td></tr><tr><td","/ A</td><td","</th><th> S","9. 8","▁the ir","<sup> *","▁s ize","mol /L","▁str etch","▁m y","E -","▁pro v","o ph","▁colspan=\"1\"> 9</td><td","▁pa th","▁m g","iv ed","8 \">","</td><td>1 5","c ular","pa th","9 \">","><mml:m n>","a bility","▁thin ;border-","is h","▁( S","</bold>#n# </td></tr><tr><td","re g","spa cing","H </td><td","on e</td><td","▁colspan=\"1\">1 9","ra d","</ext-link ></td><td","▁cell padding","GA T","▁align=\"left\"> 2.","l and","▁abo ut","od e","p g","tr ib","sub ><italic>","s e</td><td","</th><th> P","- T","▁rowspan=\"1\"> #n#<bold>","– 4","B L","10 \"","E S","w o","ul t","<hr/ ></th><th","▁cell spacing","▁colspan=\"1\">R ef","</mml:mn ><mml:mo>","▁d ef","( 0.","▁valign=\"bottom\"> 6","▁ch ange","▁valign=\"bottom\"> −","x </td><td","o uld","sup ><xref","▁valign=\"bottom\"> A","▁rowspan=\" 4\"","▁ j","▁ex per","▁s chool","▁b re","d s","ol ec","3 0</td><td","C om","▁valign=\"bottom\"> 1<hr/></td><td","r ans","▁s ymptom","▁co un","▁A n","h old","1 </td><td>0.","</xref> #n#</td></tr><tr><td","▁valign=\"bottom\">0 <hr/></td><td","is e","n ic","▁T he","gen \"","▁ext-link-type=\" gen\"","y =\"","▁n one","▁stretch y=\"","n .","</td><td> Yes","▁align=\"left\"> 0.8","par ison","<sup> +","▁m m","emale </td><td","2 /","ol es","Ref erence","P D","▁align=\"left\"> W","</mml:mn ></mml:mrow","at ure","9. 3","a e","ac tion","mis sion","ea th","▁com ple","- 4","b d","</bold></td></tr><tr><td >","</td><td> G","– 5","- S","▁C D","4. 1","al c","▁align=\"center\"> 9","/ d","g g","▁colspan=\"1\">A n","c us","/ 1.0","9. 9","9. 2","w ay","as /","h ip","- up","</ named-content","um m","▁align=\"char\"> 6","▁colspan=\"1\">2 5","0 </td></tr><tr><td","o f","▁year s</td><td","▁to tal","></td ></tr><tr","p i","** *</td><td","o. org/","▁colspan=\" 6\">","</td><td>1 4","▁(1 1.","/><td/><td /></tr><tr><td","▁f amily","=\"http://www. nis","ali /1.0","ali =\"http://www.nis","▁xmlns: ali=\"http://www.nis","schem as/","o.org/ schemas/","▁xmlns:ali=\"http://www.nis o.org/schemas/","▁xmlns:ali=\"http://www.niso.org/schemas/ ali/1.0",">< tbody","a tic","7. 1","R A","</td></tr><tr><td> H","▁1 8","6 –","o ver","▁colspan=\"4\" ><hr/></td></tr><tr><td","▁colspan=\"1\">1 2</td><td","▁rules=\"groups\"><thead ><tr><td","</xref> ;","CA T","es is","▁pro g","</p></list-item ><list-item><p>","▁align=\"left\"> [<xref","o ff","p </td><td",") .","ity </td><td","r ic","▁valign=\"bottom\"> 10","E F","p .","t es","▁c a","m an","▁ es","requ ency","</bold ><hr/></td></tr><tr><td","00 </td></tr><tr><td","0.0 </td><td","4 –","u ro","▁ “","<sup>− 1","▁I I","ers on","▁s er","▁0. 3","</td><td>1 2","▁ under","f alse","en e","▁rati o","▁html><html><body><h4> R","></mml:mrow><mml:m row><mml:m","<sup> d","▁align=\"left\"> 0.9","▁v ariable","lo y","a </italic>","3 -","#n# </td></tr><tr","ati ents","R P","ar ri","▁ list","r an","▁c an","</td><td>1 6","▁align=\"left\"> 0.7","▁th is","▁( μ","L A","▁inf ection","▁par ticipants","inline-formula ><mml:math","</th ></tr></thead><tbody",")</td><td> 2","GT T","mo king","2 1</td><td","▁ass ess","i e","tex t-",") </h4><head><style>","R S","v iv","▁s ex","bet es","iz ed","E D","5. 1","o der","▁S ta","▁<italic> p</italic>","▁v alu","r h","( 3","></mml:math ></inline-formula","ac y","2 4</td><td","▁<italic> et","text- align:","1\" ><sup>","</td><td> I","m p","</td></tr><tr><td> A","M A","-bib -00","4 0</td><td","j pg","c entr","o th","▁ind ex","▁s erv","▁us ing","▁ each","m it","tu res","▁stud ies","0 ,","▁ 8.","▁m g/","E −","▁ Yes","▁pa in","iv idual","n lm","Gen der","- in","▁colspan=\" 8\"","▁align=\"char\"> 0.8","o un","co re","6. 1","▁( ref","▁(n =","</td></tr><tr><td> T","▁on e","▁colspan=\" 7\">","es e","i od","su s","▁l oc","i ble","false \">","▁ ≤","▁(0. 00","c le","r ange","ple ment","▁stretchy=\" false\">","E </td><td","$$ \\end{document}</tex-math><mml:math","▁1 00","am eter","▁re sults","p t;","▁align=\"char\" /><td","ir th","▁inform ation","</mml:mi ><mml:mi>","er c","▁colspan=\"1\">. 0","b </td><td","O :","▁fac tors","▁align=\"left\"> 12","ul ated","</td></tr><tr><td> D","2 2</td><td","▁re c","P A","g an","▁week s","V </td><td","ul tiv","us </td><td","] </td></tr><tr><td","N F","▁html><html><body><h4> M","▁rid=\" ref","▁colspan=\"5\" ><hr/></td></tr><tr><td","▁align=\"center\"> (","ol y","▁med ian","yn th","▁ %)</td><td","</td><td> [<xref","▁align=\"char\"> 0.7","u tr","▁diagn osis","▁ end","– 0.","< break/","O S","▁colspan=\"1\"><bold> S","o k","▁colspan=\"1\">M ean","l a","▁t umor","▁align=\"center\"> 0.8","– 1.0","▁se qu","ale n","ram eter","iver s","y per","▁h is","<sup>b </sup></td><td","▁com mun","5 0</td><td","▁child ren","▁align=\"char\"> 7","▁align=\"left\" ><p>","▁ 40","▁thin;border- bottom:solid","CA A","▁( A","n al","° C","▁w omen","or d","tr a","▁meth od","ten sion","▁valign=\"bottom\"> 7","v ol","P ar","p s","▁d rug","▁p opulation","▁on ly","as e</td><td","N M","▁pro duc","><mml:m sub","▁h ospital","▁html><html><body><h4> The","▁b ut","▁cellpadding =\"5\"","- H","▁associ ated","v al","▁colspan=\"1\">– </td></tr><tr><td","- D","▁colspan=\"1\">1 1</td><td","2 3</td><td","5 )","</th><th> #n#<italic>","▁align=\"left\"> #n#<","C on","pec ific","▁r educ","</td><td> E","▁colspan=\"1\">2 4","▁(0 )</td><td","▁ les","</td><td>N A","▁align=\"center\"> 0.00","▁pa rameter","▁0. 4","en ing","▁sign ificant","</td></tr><tr><td> B","ent ial","ali z","c on","ff ic","▁con dition","▁0 px","</italic>#n# </th><th","</td><td>1 3","▁sur g","an ts","▁align=\"left\"> 0.00","▁align=\"center\"> 2.","8. 1","e qu","▁valign=\"bottom\"> T","ac ea","</td><td>− 0.","N </td><td","▁C om","ific ation","▁(1 2.","▁dis order","bo x",")</td><td> 0.0","▁de velop","</td><td>1 7","▁k now","▁0. 8","</italic></bold ></td><td","</td><td>1 8","▁E x","0.0 )</td><td","</sup></td></tr><tr><td >","co h","▁s et","▁v i","▁align=\"center\"> 10","p id","▁wh o","▁colspan=\"1\">&lt;0.00 1</td></tr><tr><td","r ol","▁ ident","▁pos itive","C H","▁colspan=\"1\">0 </td></tr><tr><td","o >","or s","▁align=\"center\"> 0.7","▁align=\"char\"> 0.9","ment s","▁valign=\"bottom\"> 2.","/ s","▁colspan=\"1\">0. 000","▁align=\"center\"> 0.9","▁mathvariant=\" normal",
[...]
